/* Copyright 2020 The TensorFlow Authors. All Rights Reserved.

Licensed under the Apache License, Version 2.0 (the "License");
you may not use this file except in compliance with the License.
You may obtain a copy of the License at

    http://www.apache.org/licenses/LICENSE-2.0

Unless required by applicable law or agreed to in writing, software
distributed under the License is distributed on an "AS IS" BASIS,
WITHOUT WARRANTIES OR CONDITIONS OF ANY KIND, either express or implied.
See the License for the specific language governing permissions and
limitations under the License.
==============================================================================*/

// Automatically created from a TensorFlow Lite flatbuffer using the command:
// xxd -i model.tflite > model.cc

// This is a standard TensorFlow Lite model file that has been converted into a
// C data array, so it can be easily compiled into a binary for devices that
// don't have a file system.

// See train/README.md for a full description of the creation process.

#include "model.h"

// Keep model aligned to 8 bytes to guarantee aligned 64-bit accesses.
// alignas(8) const unsigned char g_model[] = {
alignas(8) const unsigned char g_model[] = {
  0x1c, 0x00, 0x00, 0x00, 0x54, 0x46, 0x4c, 0x33, 0x14, 0x00, 0x20, 0x00,
  0x1c, 0x00, 0x18, 0x00, 0x14, 0x00, 0x10, 0x00, 0x0c, 0x00, 0x00, 0x00,
  0x08, 0x00, 0x04, 0x00, 0x14, 0x00, 0x00, 0x00, 0x1c, 0x00, 0x00, 0x00,
  0x88, 0x00, 0x00, 0x00, 0xb8, 0x00, 0x00, 0x00, 0xac, 0x21, 0x00, 0x00,
  0xbc, 0x21, 0x00, 0x00, 0xa0, 0x35, 0x00, 0x00, 0x03, 0x00, 0x00, 0x00,
  0x01, 0x00, 0x00, 0x00, 0x04, 0x00, 0x00, 0x00, 0x9e, 0xd9, 0xff, 0xff,
  0x0c, 0x00, 0x00, 0x00, 0x1c, 0x00, 0x00, 0x00, 0x38, 0x00, 0x00, 0x00,
  0x0f, 0x00, 0x00, 0x00, 0x73, 0x65, 0x72, 0x76, 0x69, 0x6e, 0x67, 0x5f,
  0x64, 0x65, 0x66, 0x61, 0x75, 0x6c, 0x74, 0x00, 0x01, 0x00, 0x00, 0x00,
  0x04, 0x00, 0x00, 0x00, 0xbc, 0xff, 0xff, 0xff, 0x26, 0x00, 0x00, 0x00,
  0x04, 0x00, 0x00, 0x00, 0x07, 0x00, 0x00, 0x00, 0x64, 0x65, 0x6e, 0x73,
  0x65, 0x5f, 0x31, 0x00, 0x01, 0x00, 0x00, 0x00, 0x04, 0x00, 0x00, 0x00,
  0x36, 0xdb, 0xff, 0xff, 0x04, 0x00, 0x00, 0x00, 0x0c, 0x00, 0x00, 0x00,
  0x63, 0x6f, 0x6e, 0x76, 0x31, 0x64, 0x5f, 0x69, 0x6e, 0x70, 0x75, 0x74,
  0x00, 0x00, 0x00, 0x00, 0x01, 0x00, 0x00, 0x00, 0x0c, 0x00, 0x00, 0x00,
  0x08, 0x00, 0x0c, 0x00, 0x08, 0x00, 0x04, 0x00, 0x08, 0x00, 0x00, 0x00,
  0x28, 0x00, 0x00, 0x00, 0x04, 0x00, 0x00, 0x00, 0x13, 0x00, 0x00, 0x00,
  0x6d, 0x69, 0x6e, 0x5f, 0x72, 0x75, 0x6e, 0x74, 0x69, 0x6d, 0x65, 0x5f,
  0x76, 0x65, 0x72, 0x73, 0x69, 0x6f, 0x6e, 0x00, 0x29, 0x00, 0x00, 0x00,
  0xf0, 0x20, 0x00, 0x00, 0xe8, 0x20, 0x00, 0x00, 0xd4, 0x20, 0x00, 0x00,
  0x44, 0x20, 0x00, 0x00, 0xb4, 0x1f, 0x00, 0x00, 0x9c, 0x1f, 0x00, 0x00,
  0x88, 0x1f, 0x00, 0x00, 0x74, 0x1f, 0x00, 0x00, 0x60, 0x1f, 0x00, 0x00,
  0x4c, 0x1f, 0x00, 0x00, 0x38, 0x1f, 0x00, 0x00, 0x28, 0x0f, 0x00, 0x00,
  0x98, 0x0e, 0x00, 0x00, 0x08, 0x01, 0x00, 0x00, 0xec, 0x00, 0x00, 0x00,
  0xe4, 0x00, 0x00, 0x00, 0xdc, 0x00, 0x00, 0x00, 0xd4, 0x00, 0x00, 0x00,
  0xcc, 0x00, 0x00, 0x00, 0xc4, 0x00, 0x00, 0x00, 0xbc, 0x00, 0x00, 0x00,
  0xb4, 0x00, 0x00, 0x00, 0xac, 0x00, 0x00, 0x00, 0xa4, 0x00, 0x00, 0x00,
  0x9c, 0x00, 0x00, 0x00, 0x94, 0x00, 0x00, 0x00, 0x8c, 0x00, 0x00, 0x00,
  0x84, 0x00, 0x00, 0x00, 0x7c, 0x00, 0x00, 0x00, 0x74, 0x00, 0x00, 0x00,
  0x6c, 0x00, 0x00, 0x00, 0x64, 0x00, 0x00, 0x00, 0x5c, 0x00, 0x00, 0x00,
  0x54, 0x00, 0x00, 0x00, 0x4c, 0x00, 0x00, 0x00, 0x44, 0x00, 0x00, 0x00,
  0x3c, 0x00, 0x00, 0x00, 0x34, 0x00, 0x00, 0x00, 0x2c, 0x00, 0x00, 0x00,
  0x24, 0x00, 0x00, 0x00, 0x04, 0x00, 0x00, 0x00, 0x2e, 0xdc, 0xff, 0xff,
  0x04, 0x00, 0x00, 0x00, 0x10, 0x00, 0x00, 0x00, 0x31, 0x2e, 0x31, 0x31,
  0x2e, 0x30, 0x00, 0x00, 0x00, 0x00, 0x00, 0x00, 0x00, 0x00, 0x00, 0x00,
  0xa4, 0xcb, 0xff, 0xff, 0xa8, 0xcb, 0xff, 0xff, 0xac, 0xcb, 0xff, 0xff,
  0xb0, 0xcb, 0xff, 0xff, 0xb4, 0xcb, 0xff, 0xff, 0xb8, 0xcb, 0xff, 0xff,
  0xbc, 0xcb, 0xff, 0xff, 0xc0, 0xcb, 0xff, 0xff, 0xc4, 0xcb, 0xff, 0xff,
  0xc8, 0xcb, 0xff, 0xff, 0xcc, 0xcb, 0xff, 0xff, 0xd0, 0xcb, 0xff, 0xff,
  0xd4, 0xcb, 0xff, 0xff, 0xd8, 0xcb, 0xff, 0xff, 0xdc, 0xcb, 0xff, 0xff,
  0xe0, 0xcb, 0xff, 0xff, 0xe4, 0xcb, 0xff, 0xff, 0xe8, 0xcb, 0xff, 0xff,
  0xec, 0xcb, 0xff, 0xff, 0xf0, 0xcb, 0xff, 0xff, 0xf4, 0xcb, 0xff, 0xff,
  0xf8, 0xcb, 0xff, 0xff, 0xfc, 0xcb, 0xff, 0xff, 0x00, 0xcc, 0xff, 0xff,
  0x04, 0xcc, 0xff, 0xff, 0xae, 0xdc, 0xff, 0xff, 0x04, 0x00, 0x00, 0x00,
  0x0c, 0x00, 0x00, 0x00, 0xff, 0xff, 0xff, 0xff, 0x01, 0x00, 0x00, 0x00,
  0x20, 0x00, 0x00, 0x00, 0xc6, 0xdc, 0xff, 0xff, 0x04, 0x00, 0x00, 0x00,
  0x80, 0x0d, 0x00, 0x00, 0xd7, 0x33, 0xbd, 0xbd, 0xd9, 0x5b, 0x4b, 0xbd,
  0x3d, 0xa2, 0xa3, 0x3c, 0x1e, 0x72, 0x6f, 0xbd, 0x5d, 0x24, 0x1d, 0xbe,
  0x9a, 0x11, 0x6d, 0xbd, 0x57, 0xb2, 0xe8, 0xbd, 0xda, 0x94, 0x77, 0x3c,
  0x65, 0xb3, 0xcd, 0x3c, 0x01, 0x47, 0x88, 0xbe, 0xb8, 0x30, 0x24, 0xbe,
  0xfc, 0x2c, 0xd2, 0xbb, 0xd0, 0xfa, 0xd1, 0xbd, 0x10, 0x67, 0xa2, 0x3c,
  0x93, 0x45, 0x24, 0x3d, 0xe9, 0xdd, 0x8f, 0xbe, 0xff, 0x66, 0xcb, 0x3d,
  0xf0, 0xd9, 0x9e, 0x3d, 0xd1, 0x1b, 0xcc, 0xbd, 0x8f, 0x49, 0x90, 0x3d,
  0xbf, 0x2f, 0x2f, 0x3d, 0xe4, 0xb7, 0x3d, 0xbe, 0x60, 0x5a, 0x8b, 0x3d,
  0x9c, 0x81, 0x85, 0x3c, 0x19, 0xef, 0x42, 0xbe, 0x34, 0xe4, 0x2b, 0xbe,
  0x12, 0xce, 0x93, 0xbc, 0x0d, 0xe8, 0xff, 0x3d, 0xd7, 0x3a, 0xbb, 0xbd,
  0x52, 0x74, 0xdf, 0x3d, 0xa1, 0x1e, 0x04, 0x3e, 0x99, 0x39, 0x23, 0x3e,
  0x2c, 0xb6, 0x02, 0xbe, 0x90, 0x39, 0xdc, 0x3d, 0xfc, 0x64, 0xc3, 0xbd,
  0xe1, 0x28, 0xac, 0xbc, 0xba, 0x25, 0x92, 0x3e, 0xee, 0x75, 0x23, 0x3e,
  0x76, 0x42, 0xa4, 0xbc, 0x2a, 0xa1, 0x36, 0x3e, 0xcb, 0x8f, 0x9d, 0xbd,
  0x05, 0xd5, 0xae, 0x3c, 0xe0, 0xf9, 0xd7, 0x3d, 0x1f, 0x5b, 0x40, 0xbd,
  0x96, 0x95, 0x1f, 0x3d, 0x20, 0x13, 0x12, 0x3e, 0x1a, 0x39, 0x1d, 0x3c,
  0xff, 0xf5, 0x17, 0x3e, 0x89, 0xe6, 0x74, 0x3e, 0xc9, 0x94, 0xb2, 0x3d,
  0xd8, 0x93, 0xd4, 0x3d, 0x0c, 0xd9, 0x4f, 0x3e, 0xf1, 0x45, 0xaa, 0x3d,
  0x90, 0xbf, 0x34, 0xbc, 0x80, 0x31, 0x63, 0xbb, 0x36, 0x67, 0x33, 0xbd,
  0xda, 0x45, 0xf8, 0x3d, 0xa6, 0xe8, 0x9b, 0x3d, 0x98, 0x7a, 0x02, 0x3d,
  0x6e, 0x1c, 0xa5, 0xbd, 0x32, 0xc7, 0xc6, 0x3d, 0x94, 0x71, 0x15, 0xbd,
  0x10, 0xb6, 0x25, 0x3c, 0xec, 0xa0, 0x32, 0xbd, 0x4c, 0x70, 0x2d, 0x3d,
  0xe5, 0x54, 0x0a, 0xbe, 0xa0, 0xd2, 0xfc, 0xbb, 0x24, 0xe1, 0x8c, 0x3d,
  0xf0, 0xd2, 0x32, 0xbc, 0xbb, 0x86, 0xfe, 0xbd, 0xc0, 0xd3, 0xcd, 0xbd,
  0x10, 0xc6, 0x09, 0x3c, 0x90, 0x98, 0xd8, 0xbc, 0xbe, 0xd9, 0x8a, 0x3d,
  0x49, 0x57, 0x07, 0xbe, 0x82, 0xd6, 0x7d, 0xbd, 0x26, 0xc8, 0xc3, 0x3d,
  0x3e, 0xf7, 0xba, 0x3d, 0x00, 0xfe, 0xe3, 0x3d, 0x48, 0xa3, 0xa5, 0xbc,
  0x14, 0x4f, 0x7d, 0x3d, 0x21, 0xff, 0x27, 0x3e, 0x66, 0x98, 0x2e, 0x3e,
  0xdd, 0x40, 0xec, 0x3d, 0x9d, 0x44, 0x0f, 0x3e, 0xa6, 0x9f, 0xd5, 0x3d,
  0xec, 0x06, 0x8b, 0x3d, 0xfe, 0x20, 0x6f, 0x3d, 0x27, 0xba, 0x96, 0xbd,
  0x43, 0xc1, 0x59, 0x3d, 0xd6, 0x81, 0x36, 0x3d, 0x52, 0x30, 0xc8, 0xbc,
  0xd9, 0x66, 0xd3, 0x3c, 0xa4, 0x91, 0x90, 0x3e, 0x34, 0xdb, 0x9d, 0xbd,
  0xe7, 0x5f, 0xb4, 0xbd, 0xdc, 0xb4, 0x6a, 0x3e, 0x46, 0x07, 0x0e, 0x3e,
  0x18, 0x09, 0xb4, 0x3d, 0x7d, 0x26, 0x9c, 0x3d, 0xaf, 0x2c, 0xa8, 0xbc,
  0xbb, 0x3f, 0xe8, 0xbb, 0xb7, 0x9c, 0x08, 0x3e, 0x73, 0x7d, 0xbd, 0x3d,
  0x12, 0xc7, 0xb5, 0x3d, 0x6a, 0x27, 0xc9, 0x3d, 0xcc, 0xa6, 0xc0, 0xbd,
  0x8f, 0x54, 0x53, 0xbd, 0x3a, 0xe9, 0x95, 0x3e, 0xc5, 0x4f, 0x34, 0xbc,
  0x10, 0x57, 0x1b, 0x3e, 0x02, 0x5e, 0xa8, 0x3e, 0x61, 0xcf, 0x8b, 0xbc,
  0x2e, 0x99, 0x90, 0x3d, 0x7f, 0x6d, 0x4e, 0x3e, 0x54, 0x51, 0x17, 0xbc,
  0x67, 0x32, 0xbc, 0x3b, 0x8c, 0x8d, 0x5c, 0x3e, 0x85, 0x6f, 0x39, 0x3e,
  0x52, 0xd4, 0xc2, 0xbd, 0xd1, 0x2a, 0x48, 0x3e, 0xeb, 0xfa, 0xcc, 0x3d,
  0xe2, 0x8e, 0x65, 0xbd, 0x66, 0x56, 0x2f, 0x3e, 0xae, 0xcd, 0xdb, 0x3d,
  0x51, 0x4e, 0x35, 0xbd, 0xae, 0xba, 0xf5, 0x3d, 0x96, 0x8f, 0x5c, 0x3d,
  0x47, 0x50, 0x0b, 0x3e, 0xd0, 0xd3, 0x27, 0x3e, 0x52, 0x6a, 0xdc, 0x3d,
  0xe3, 0xad, 0x52, 0xbd, 0x4d, 0x14, 0x59, 0x3e, 0xc8, 0x47, 0x29, 0x3e,
  0xb4, 0xe1, 0xb0, 0x3d, 0x55, 0x2d, 0x8b, 0xbd, 0xef, 0xbc, 0x79, 0x3d,
  0xe0, 0xe4, 0x1d, 0xbd, 0x3f, 0xdb, 0x9b, 0xbe, 0xbe, 0x9c, 0x1e, 0xbe,
  0xa5, 0x14, 0xf3, 0x3c, 0x47, 0x9e, 0xad, 0xbd, 0xda, 0x26, 0x5b, 0x3c,
  0x17, 0x1d, 0xb8, 0x3d, 0xb1, 0x67, 0x15, 0xbe, 0xe1, 0x61, 0x31, 0xbb,
  0xd9, 0xde, 0x94, 0x3d, 0x56, 0xe6, 0x84, 0xbe, 0x77, 0xbb, 0x29, 0xbe,
  0x53, 0xf2, 0xda, 0x3c, 0x1e, 0x0d, 0x91, 0xbd, 0x07, 0x2b, 0xc3, 0xbd,
  0xd0, 0x7c, 0xde, 0xbc, 0x2b, 0x9d, 0x68, 0xbe, 0xb0, 0x83, 0x0b, 0xbd,
  0x2a, 0xe6, 0xb8, 0x3d, 0x4c, 0x14, 0xa6, 0xbd, 0x39, 0x0b, 0x22, 0x3c,
  0x46, 0x04, 0x9b, 0xbd, 0x60, 0x3a, 0x41, 0xbe, 0xcc, 0x70, 0xd3, 0xbd,
  0x77, 0x0c, 0x00, 0xbe, 0xa4, 0xaf, 0x16, 0xbe, 0x93, 0x2b, 0xcb, 0xbd,
  0x54, 0x0f, 0xeb, 0x3d, 0xc1, 0x84, 0x8d, 0x3d, 0x31, 0xf0, 0xe5, 0xbb,
  0x3f, 0x14, 0x9d, 0x3a, 0x4c, 0xf8, 0xd1, 0x3c, 0x02, 0x87, 0x00, 0xbe,
  0x20, 0xd5, 0xef, 0x3d, 0xda, 0x84, 0x95, 0xbd, 0xec, 0x2b, 0xe9, 0xbd,
  0x6f, 0x82, 0x21, 0xbd, 0x8f, 0x1f, 0x1f, 0xbe, 0x03, 0x15, 0x13, 0xbe,
  0x66, 0x0e, 0x0b, 0xbe, 0x82, 0x0e, 0x2e, 0x3c, 0x5d, 0x43, 0xbc, 0x3d,
  0x09, 0xe7, 0x53, 0xbd, 0xbf, 0xa7, 0x59, 0x3c, 0xc4, 0x07, 0x6c, 0xbd,
  0xf9, 0x07, 0x17, 0xbe, 0xdb, 0xcd, 0xbd, 0xbd, 0x17, 0x85, 0xc1, 0xb8,
  0x2a, 0xff, 0x48, 0x3d, 0x6b, 0xb8, 0xcd, 0x3d, 0x61, 0xd0, 0x73, 0x3c,
  0x81, 0xb8, 0xa1, 0x3d, 0xf5, 0x87, 0x86, 0x3e, 0x6a, 0xd0, 0x71, 0xbd,
  0x31, 0xff, 0x2b, 0x3d, 0xee, 0x95, 0x10, 0x3e, 0x8e, 0x00, 0x83, 0xbd,
  0xc0, 0x61, 0x0c, 0xbe, 0x46, 0xc2, 0xac, 0x3d, 0xb1, 0x4b, 0x39, 0xbd,
  0x57, 0xd3, 0xd6, 0x3a, 0x09, 0x05, 0x6f, 0x3e, 0xd3, 0x56, 0xe6, 0x3d,
  0xb6, 0xf5, 0xff, 0xbd, 0xdd, 0x79, 0x3f, 0x3d, 0x20, 0x17, 0xb2, 0x3d,
  0x1c, 0xa3, 0xdb, 0x3d, 0xed, 0xf7, 0x95, 0x3d, 0xdb, 0x14, 0x0c, 0xbe,
  0xcc, 0xbc, 0xc0, 0x3d, 0x7f, 0x26, 0x80, 0x3e, 0x42, 0xdb, 0xc1, 0x3c,
  0x60, 0x25, 0x02, 0x3d, 0xc5, 0x02, 0x8d, 0x3e, 0xc1, 0x7f, 0xe0, 0xbd,
  0x21, 0x3a, 0xd9, 0x3d, 0x80, 0x0c, 0x71, 0x3e, 0x12, 0x6b, 0xc0, 0xbd,
  0x84, 0x15, 0x15, 0x3d, 0x26, 0x28, 0xda, 0x3d, 0xc3, 0x89, 0x20, 0x3d,
  0x70, 0xc9, 0x7e, 0x3d, 0x78, 0x43, 0xca, 0x3d, 0x62, 0x21, 0x36, 0x3d,
  0x71, 0x77, 0xc9, 0x3d, 0x5b, 0x12, 0x0f, 0x3e, 0x43, 0x21, 0x19, 0x3e,
  0x94, 0x02, 0xc5, 0xbd, 0xf3, 0xc7, 0x68, 0x3e, 0x13, 0x36, 0x4d, 0x3d,
  0xe1, 0xe6, 0x36, 0xbd, 0xa8, 0x1a, 0xeb, 0x3d, 0x62, 0xee, 0x0f, 0x3e,
  0xe6, 0xe5, 0xb3, 0xbc, 0x56, 0xee, 0x8e, 0x3e, 0x3c, 0xcd, 0xed, 0x3d,
  0x6b, 0x60, 0xfc, 0xbc, 0x18, 0xa4, 0xda, 0x3d, 0x73, 0xee, 0x0b, 0x3d,
  0xd7, 0xd1, 0x0a, 0x3e, 0x50, 0xdd, 0x3e, 0x3e, 0x9f, 0x89, 0xaf, 0x3b,
  0x2a, 0x6b, 0x9f, 0xbc, 0x19, 0xb9, 0x36, 0x3e, 0xf0, 0x54, 0xdb, 0xbc,
  0xfd, 0xaf, 0x6b, 0x3d, 0x00, 0x1c, 0xec, 0x3c, 0xb8, 0x4b, 0x92, 0xbd,
  0x30, 0x1c, 0xda, 0xbd, 0x04, 0xf9, 0x1d, 0xbd, 0x20, 0xc4, 0xed, 0x3c,
  0x6f, 0x96, 0x0b, 0xbe, 0x06, 0x7b, 0xf8, 0x3d, 0xe0, 0xdc, 0x03, 0x3d,
  0x76, 0xe9, 0x84, 0x3d, 0x90, 0x59, 0xc9, 0x3c, 0xea, 0xba, 0xd6, 0xbd,
  0xde, 0x13, 0xbe, 0x3d, 0x70, 0x85, 0x11, 0x3c, 0xf5, 0x8a, 0x01, 0x3e,
  0xa2, 0x6c, 0xcf, 0xbd, 0x49, 0x27, 0x03, 0xbe, 0x3a, 0x03, 0x93, 0xbd,
  0x62, 0xdb, 0xe6, 0x3d, 0x80, 0xad, 0x44, 0x3d, 0x58, 0x48, 0xcb, 0xbd,
  0xf6, 0x68, 0x93, 0xbd, 0x78, 0x52, 0x60, 0x3d, 0x84, 0x86, 0xee, 0xbc,
  0x87, 0x10, 0x0b, 0x3e, 0x94, 0x52, 0x05, 0x3d, 0x98, 0x48, 0xfd, 0xbd,
  0x76, 0xc0, 0xe4, 0xbd, 0x78, 0xd8, 0x83, 0x3e, 0x1f, 0x21, 0xe3, 0x3d,
  0x1c, 0x9d, 0x4f, 0x3d, 0x11, 0x85, 0x80, 0x3e, 0xe9, 0x7e, 0xae, 0xbd,
  0x93, 0x6c, 0x75, 0x3d, 0x75, 0x5c, 0xa6, 0x3d, 0xa4, 0xa4, 0xd6, 0x3d,
  0xe1, 0xf0, 0x1c, 0x3e, 0xff, 0x64, 0x90, 0x3e, 0x65, 0x1e, 0x6c, 0xbd,
  0xf4, 0xf2, 0xf9, 0x3d, 0x27, 0x98, 0x21, 0x3e, 0x29, 0xb8, 0x3f, 0x3d,
  0x26, 0x6d, 0xdc, 0x3c, 0x2f, 0xa7, 0xac, 0x3e, 0x02, 0x53, 0xd6, 0x3d,
  0x14, 0x8d, 0x87, 0xbd, 0x07, 0xaa, 0xaf, 0x3d, 0x60, 0x97, 0xf1, 0xbc,
  0xb2, 0x98, 0xe7, 0x3c, 0xf5, 0x2f, 0x99, 0x3e, 0x19, 0x0e, 0x0b, 0x3d,
  0x75, 0x66, 0xbd, 0x3d, 0x71, 0xd7, 0x27, 0x3e, 0x6f, 0xb0, 0xb9, 0xbd,
  0x47, 0x43, 0xfa, 0x3d, 0x0f, 0x02, 0x8e, 0x3e, 0xf8, 0xb5, 0xbc, 0xbb,
  0xbb, 0xf0, 0xc1, 0x3d, 0xd1, 0xf1, 0x93, 0x3e, 0xbc, 0xbb, 0xb0, 0xbd,
  0x75, 0x58, 0x04, 0x3e, 0x93, 0xfa, 0x84, 0x3e, 0x11, 0xb8, 0xb5, 0xbd,
  0x63, 0xf0, 0x05, 0xbd, 0xc2, 0x2d, 0x64, 0x3e, 0x2c, 0x76, 0xab, 0x3c,
  0x6f, 0x28, 0xe4, 0x3b, 0x76, 0x32, 0x08, 0x3e, 0x21, 0x1c, 0xe9, 0x3d,
  0x76, 0xe7, 0x0a, 0x3e, 0x1f, 0x08, 0x7e, 0x3e, 0x8e, 0x53, 0x91, 0xbd,
  0x35, 0xf4, 0x1f, 0x3e, 0x2f, 0x4b, 0x91, 0x3e, 0x7b, 0x3b, 0x28, 0xbd,
  0xa7, 0xeb, 0xb5, 0xbd, 0x61, 0x34, 0x4b, 0x3e, 0x60, 0xe5, 0xa6, 0x3d,
  0x27, 0x48, 0xaf, 0x3d, 0xb3, 0xbf, 0xed, 0x3d, 0x67, 0x8b, 0xb0, 0xbd,
  0x1c, 0x2c, 0x7d, 0xbd, 0x43, 0x0b, 0xb9, 0xbc, 0x74, 0xfa, 0xeb, 0xbd,
  0x70, 0xa2, 0xeb, 0x3d, 0x8b, 0x61, 0x9c, 0x3c, 0x93, 0xd8, 0xfb, 0xbc,
  0xac, 0x43, 0xc5, 0x3d, 0x69, 0x83, 0x1b, 0xbe, 0x68, 0xdb, 0xd7, 0xbd,
  0x05, 0x02, 0x91, 0x3d, 0xbf, 0x1d, 0x03, 0xbe, 0x69, 0x62, 0xe5, 0x3d,
  0xe1, 0xd7, 0xb5, 0xbd, 0x20, 0xc5, 0x0e, 0xbe, 0xb6, 0x14, 0x26, 0x3a,
  0xa5, 0x74, 0xfb, 0x3d, 0xc3, 0x3a, 0xac, 0xbd, 0x1b, 0x96, 0xda, 0xbd,
  0x59, 0x5b, 0x29, 0x3d, 0x67, 0x6b, 0xc6, 0xbd, 0x9e, 0x9f, 0xef, 0x3d,
  0x5e, 0x2a, 0x17, 0x3e, 0x8a, 0x5e, 0x82, 0xbd, 0x1f, 0xeb, 0x06, 0xbe,
  0x3d, 0xf6, 0xdb, 0x3c, 0x23, 0x1f, 0xfb, 0xbd, 0xb7, 0x7d, 0xfe, 0x3d,
  0xaf, 0x46, 0xc0, 0x3c, 0xfb, 0xb0, 0x97, 0x3e, 0x26, 0x49, 0x1b, 0x3e,
  0x13, 0x8c, 0xc6, 0x3d, 0xd7, 0x4c, 0x62, 0x3e, 0xaa, 0xc9, 0x8b, 0xbd,
  0xcd, 0x0f, 0x02, 0x3e, 0xd0, 0x44, 0x62, 0x3e, 0xc7, 0x52, 0xcd, 0x3d,
  0x88, 0x0f, 0xf4, 0x3d, 0xac, 0x53, 0x1a, 0x3e, 0x13, 0x90, 0x7f, 0xbd,
  0xf4, 0x23, 0x1a, 0x3e, 0x15, 0xdd, 0x27, 0x3e, 0x91, 0x79, 0xab, 0xbd,
  0xb4, 0x87, 0xd9, 0xbd, 0x17, 0x4f, 0x52, 0x3e, 0x2e, 0x13, 0xe4, 0x3d,
  0x05, 0x90, 0x8e, 0x3a, 0xe0, 0xdc, 0x12, 0x3e, 0xcb, 0xf3, 0x10, 0x3e,
  0x89, 0xc5, 0x7f, 0x3d, 0x98, 0x1a, 0x1f, 0x3e, 0xa4, 0xf9, 0x37, 0xbd,
  0x30, 0xf6, 0x0c, 0xbb, 0xbd, 0x51, 0x7b, 0x3e, 0x1b, 0xdc, 0x63, 0x3d,
  0x02, 0x7e, 0x9d, 0x3d, 0x80, 0x0a, 0x27, 0x3b, 0x30, 0x16, 0x3e, 0x3d,
  0xa6, 0x7d, 0xa9, 0x3d, 0xc8, 0xee, 0x72, 0xbd, 0x03, 0xcb, 0xb8, 0xbd,
  0xd6, 0x20, 0xea, 0xbd, 0x78, 0x78, 0xe6, 0x3c, 0xe0, 0x1a, 0x9c, 0x3c,
  0x44, 0xb4, 0x5f, 0x3d, 0xb8, 0xcd, 0x8c, 0xbc, 0xf0, 0x5d, 0x51, 0x3d,
  0x66, 0x3f, 0x77, 0xbd, 0xb0, 0x1e, 0x03, 0xbe, 0x00, 0xac, 0xe2, 0xb9,
  0x44, 0x36, 0xe0, 0xbc, 0x0a, 0x41, 0x92, 0x3d, 0x04, 0xcc, 0xe1, 0xbd,
  0x98, 0x94, 0xea, 0x3c, 0xe5, 0x41, 0x06, 0x3e, 0x40, 0xe0, 0x2e, 0x3b,
  0x98, 0x7d, 0xcd, 0xbd, 0xc0, 0x4b, 0x87, 0x3b, 0xc0, 0x4e, 0xa5, 0x3d,
  0x40, 0xbf, 0x45, 0x3d, 0x0c, 0x5f, 0x0b, 0x3d, 0x4a, 0x1e, 0xdc, 0xbd,
  0x28, 0xef, 0xb7, 0xbd, 0x8a, 0xa6, 0x07, 0xbe, 0x16, 0xee, 0x97, 0x3d,
  0x8a, 0xa3, 0xbe, 0x3d, 0x1c, 0xa7, 0x15, 0xbe, 0x6c, 0xe3, 0xd7, 0x3c,
  0x7b, 0x11, 0xf4, 0x3c, 0x7e, 0xfc, 0xb8, 0xbd, 0xdc, 0x9b, 0x95, 0x3d,
  0xee, 0x6d, 0x5f, 0x3d, 0xa4, 0xc1, 0x18, 0xbd, 0xad, 0xb1, 0xd7, 0x3c,
  0x4e, 0x68, 0x96, 0x3d, 0x5e, 0x7d, 0xbc, 0xbc, 0xc5, 0x48, 0x0d, 0xbc,
  0x1a, 0xe5, 0x0e, 0xbd, 0xe3, 0x89, 0xbf, 0xbd, 0x3c, 0x2d, 0xb5, 0x3d,
  0xeb, 0x1e, 0xfb, 0xbd, 0xfa, 0xff, 0x2b, 0xbc, 0x5b, 0x0d, 0x05, 0xbe,
  0xb6, 0x5d, 0x24, 0xbc, 0xc5, 0xf4, 0x20, 0x3c, 0xc0, 0x63, 0x6f, 0xbd,
  0x6b, 0x43, 0x9a, 0xbd, 0x09, 0xd3, 0xb2, 0x3c, 0xed, 0x81, 0xed, 0x3d,
  0xda, 0xbd, 0xc0, 0xbd, 0xba, 0x1b, 0x4e, 0x3e, 0xa4, 0xa7, 0x23, 0x3e,
  0x40, 0x84, 0xbb, 0x3a, 0x9f, 0x1c, 0xff, 0x3d, 0x10, 0xaa, 0xbc, 0x3c,
  0xdf, 0xa7, 0xbf, 0xbc, 0x8f, 0x80, 0xa6, 0x3e, 0xe0, 0x98, 0x2a, 0x3e,
  0xd3, 0x61, 0xce, 0x3d, 0x1e, 0xd3, 0x84, 0x3e, 0x65, 0xdc, 0xf0, 0x3d,
  0xdb, 0x45, 0x7c, 0xbd, 0x69, 0x43, 0x03, 0x3e, 0x91, 0x93, 0x2e, 0x3d,
  0x9d, 0x02, 0x2c, 0xbb, 0x1b, 0x53, 0x24, 0x3e, 0x34, 0xee, 0x05, 0x3e,
  0xf3, 0x35, 0x03, 0x3e, 0x98, 0x99, 0xed, 0x3d, 0xa0, 0xf8, 0x0d, 0x3e,
  0x99, 0xa5, 0x9a, 0x3d, 0xbf, 0x31, 0x6c, 0x3e, 0x93, 0xe5, 0x9b, 0x3d,
  0x1d, 0xd7, 0x18, 0x3e, 0xbd, 0x9b, 0x9b, 0x3e, 0x47, 0x28, 0x27, 0x3e,
  0x5e, 0xe5, 0xfa, 0x3c, 0x20, 0x49, 0xd0, 0xbd, 0x5c, 0x79, 0x42, 0x3d,
  0xcc, 0xdc, 0xe1, 0x3d, 0x4a, 0x89, 0xbc, 0xbd, 0xb0, 0xe4, 0x54, 0xbc,
  0xd0, 0x1d, 0x67, 0x3c, 0x79, 0x29, 0x04, 0x3e, 0x0c, 0x4b, 0x9f, 0x3d,
  0x76, 0x38, 0xe6, 0xbd, 0xf5, 0x4e, 0xc9, 0xbd, 0x81, 0xd0, 0xb0, 0xbd,
  0xd0, 0xac, 0xc7, 0x3c, 0xa9, 0xef, 0xfd, 0xbd, 0xad, 0x16, 0x08, 0x3e,
  0x34, 0xf0, 0xd0, 0xbd, 0xf6, 0xca, 0xf8, 0x3d, 0xd4, 0x99, 0x19, 0x3d,
  0xb6, 0x52, 0xc7, 0x3d, 0x3c, 0xbb, 0x0d, 0xbd, 0xb8, 0x14, 0x77, 0xbd,
  0xcc, 0xf4, 0x93, 0xbc, 0x80, 0x0a, 0x71, 0xbc, 0x5c, 0xd4, 0x89, 0xbc,
  0x04, 0x0d, 0x03, 0x3d, 0x6c, 0x82, 0x07, 0xbd, 0xaa, 0x40, 0xaa, 0x3d,
  0x1b, 0x91, 0xf0, 0xbd, 0x1d, 0x5e, 0x7a, 0x3e, 0xb8, 0x4c, 0xb0, 0x3d,
  0x0f, 0x61, 0x47, 0x3c, 0xe6, 0xb1, 0x95, 0x3e, 0x7b, 0xfc, 0xb1, 0xbd,
  0xa9, 0x5c, 0x0b, 0xbe, 0x30, 0x51, 0x06, 0x3e, 0xe0, 0x5c, 0x7a, 0xbc,
  0x55, 0x00, 0xd7, 0xbc, 0x72, 0x4e, 0x2f, 0x3e, 0xa7, 0x21, 0x0b, 0x3d,
  0x43, 0x55, 0x9c, 0x3d, 0x92, 0x1f, 0x8d, 0x3e, 0x1c, 0x71, 0xac, 0x3c,
  0xda, 0xfd, 0xff, 0x3d, 0x2d, 0x0f, 0xa2, 0x3e, 0x33, 0xd6, 0x56, 0x3d,
  0x43, 0x05, 0x88, 0x3d, 0x5d, 0xa2, 0x89, 0x3e, 0x3a, 0x41, 0x9b, 0xbd,
  0x8c, 0xab, 0xf7, 0x3d, 0x22, 0x96, 0xde, 0x3d, 0xa7, 0xe5, 0xde, 0xbd,
  0x1d, 0x51, 0xb9, 0x3d, 0xda, 0x51, 0x9c, 0x3e, 0xcc, 0xb2, 0x85, 0x3d,
  0x48, 0x1f, 0x95, 0x3b, 0x31, 0x2c, 0x4c, 0x3e, 0xd3, 0x97, 0xc8, 0x3d,
  0x86, 0x97, 0x6c, 0x3d, 0xee, 0x16, 0x8b, 0x3e, 0xed, 0x47, 0xfb, 0x3d,
  0x54, 0x62, 0x75, 0x3c, 0x8d, 0x00, 0x86, 0x3d, 0x75, 0x55, 0xd2, 0xbc,
  0x5c, 0x7a, 0x26, 0xbd, 0x22, 0x05, 0x14, 0x3e, 0x20, 0x4c, 0xba, 0xbc,
  0x70, 0x71, 0x46, 0x3d, 0x9b, 0xcb, 0x9e, 0x3e, 0x1b, 0xa2, 0x67, 0xbd,
  0x09, 0xce, 0xc3, 0x3d, 0x9a, 0x12, 0xd3, 0x3d, 0xf4, 0x1e, 0xd3, 0xbc,
  0xba, 0xfb, 0x59, 0xbd, 0x7e, 0x75, 0x8c, 0x3d, 0x53, 0x19, 0x0a, 0x3a,
  0x3e, 0x92, 0x91, 0x3d, 0xd2, 0xf2, 0xa4, 0x3d, 0x8e, 0xaa, 0xa4, 0xbd,
  0x22, 0x63, 0x90, 0xbd, 0xcf, 0x4a, 0x43, 0x3e, 0xcd, 0x53, 0xa0, 0xbc,
  0xb5, 0x61, 0x13, 0x3c, 0x43, 0xff, 0xb8, 0x3e, 0x20, 0x34, 0xca, 0x3d,
  0xa5, 0x74, 0x4d, 0x3d, 0xa5, 0x7b, 0x4e, 0x3e, 0x29, 0x0e, 0x43, 0x3d,
  0xad, 0xf3, 0x35, 0xbd, 0x05, 0xea, 0xbc, 0x3e, 0xd3, 0x41, 0xa4, 0x3d,
  0x55, 0x6d, 0xdb, 0xbd, 0x75, 0x48, 0xc4, 0x3e, 0x03, 0x79, 0xa3, 0xbd,
  0x82, 0x14, 0x73, 0xbd, 0x03, 0xbb, 0xb5, 0x3e, 0x9a, 0x05, 0x00, 0x3e,
  0xe8, 0x83, 0x1f, 0x3e, 0x21, 0xdc, 0x68, 0x3e, 0x77, 0x93, 0x9b, 0x3d,
  0xec, 0xf8, 0xea, 0x3d, 0x32, 0x67, 0x9c, 0x3e, 0x59, 0x0a, 0x07, 0x3e,
  0x90, 0x54, 0x54, 0x3c, 0x8a, 0x99, 0x95, 0x3e, 0xbc, 0x64, 0x73, 0x3d,
  0xf6, 0xef, 0x08, 0x3e, 0xdb, 0xbf, 0xc2, 0x3e, 0xee, 0x13, 0xfc, 0x3d,
  0x0d, 0x32, 0x4e, 0x3d, 0x23, 0xa4, 0x08, 0x3e, 0x2c, 0x3a, 0x6c, 0xbd,
  0x00, 0xe3, 0xc7, 0xba, 0x0e, 0x8e, 0xec, 0x3d, 0xe0, 0xf7, 0x8f, 0xbb,
  0x90, 0x2e, 0x70, 0xbd, 0xbe, 0xfb, 0x9d, 0x3d, 0xe4, 0xf7, 0x38, 0x3d,
  0x8c, 0xd7, 0xcc, 0xbd, 0xac, 0xf7, 0xfb, 0xbd, 0x40, 0x14, 0xe9, 0xbb,
  0x98, 0xa1, 0x9f, 0x3d, 0x40, 0x5f, 0x12, 0xbd, 0x50, 0x9d, 0xba, 0xbc,
  0xac, 0x18, 0x74, 0x3d, 0xa6, 0x5f, 0xe4, 0x3d, 0x5c, 0xbf, 0xe3, 0xbc,
  0x94, 0x89, 0x88, 0xbd, 0xd6, 0x0e, 0xc7, 0x3d, 0xa6, 0xae, 0xf3, 0xbd,
  0x08, 0xad, 0x93, 0xbc, 0xf6, 0xf9, 0xa3, 0x3d, 0x28, 0x77, 0xbf, 0x3c,
  0xcc, 0x46, 0x40, 0x3d, 0x1d, 0x20, 0x05, 0x3e, 0x88, 0xd2, 0x5b, 0xbd,
  0xc7, 0x0a, 0xdb, 0xbd, 0x00, 0x0b, 0x48, 0x3d, 0xab, 0xb0, 0x03, 0x3e,
  0x40, 0x43, 0x06, 0xbb, 0xb0, 0x31, 0x39, 0xbc, 0x80, 0x81, 0x66, 0x3d,
  0x76, 0x87, 0x8d, 0xbd, 0x66, 0x31, 0xfe, 0x3d, 0x88, 0x54, 0xa0, 0xbd,
  0x60, 0x7a, 0x21, 0xbd, 0x78, 0x17, 0x90, 0x3d, 0x64, 0xfb, 0xb6, 0x3d,
  0xc0, 0xd6, 0x4d, 0xbd, 0xca, 0xc5, 0xb2, 0x3d, 0xd9, 0x82, 0x08, 0x3e,
  0x98, 0x93, 0x6e, 0x3d, 0xaa, 0x44, 0x0c, 0xbe, 0x4c, 0x57, 0xbb, 0xbd,
  0x96, 0x1b, 0x9f, 0xbd, 0xec, 0x38, 0x7f, 0x3d, 0x58, 0xc9, 0xa7, 0xbc,
  0xee, 0xd0, 0x72, 0xbd, 0x3a, 0x11, 0x01, 0xbe, 0xa0, 0x8a, 0xcf, 0xbb,
  0xdb, 0x66, 0xe5, 0xbd, 0x62, 0x1b, 0xde, 0x3d, 0x70, 0xf5, 0xac, 0xbc,
  0x78, 0xb1, 0xd7, 0x3c, 0x53, 0x9f, 0x42, 0x3e, 0xe7, 0xbc, 0xfa, 0xbc,
  0x53, 0x00, 0xbc, 0xbd, 0xfd, 0xfd, 0x51, 0x3e, 0x95, 0x4b, 0x18, 0x3d,
  0x07, 0xf3, 0x09, 0x3e, 0x89, 0xd1, 0x84, 0x3e, 0xf5, 0x08, 0x4f, 0x3d,
  0x8c, 0xe6, 0x92, 0xbd, 0x73, 0xad, 0x37, 0x3e, 0xde, 0x69, 0x21, 0xbd,
  0xbc, 0xa8, 0x00, 0x3e, 0x97, 0xb4, 0x35, 0x3e, 0x15, 0xaa, 0x43, 0xbd,
  0x44, 0x90, 0x1b, 0x3e, 0x51, 0x7b, 0x8e, 0x3d, 0x57, 0x02, 0xb8, 0x3d,
  0x3b, 0x38, 0xbd, 0xbc, 0x69, 0xf3, 0xa0, 0x3e, 0x19, 0x02, 0x6a, 0x3b,
  0xbd, 0x85, 0x1c, 0x3e, 0xa9, 0x82, 0x8d, 0x3e, 0xf0, 0x3e, 0x5c, 0xbd,
  0x8d, 0x51, 0xf8, 0x3d, 0x36, 0x26, 0x02, 0x3e, 0xf0, 0xdd, 0x90, 0x3c,
  0xfa, 0x64, 0xd8, 0xbd, 0x19, 0x74, 0x6f, 0x3e, 0x62, 0x83, 0xcf, 0x3c,
  0x98, 0x04, 0x11, 0x3e, 0xbd, 0xc8, 0x59, 0x3e, 0xd0, 0x48, 0x34, 0xbd,
  0x68, 0x9d, 0xf9, 0x3d, 0x30, 0x9c, 0x01, 0x3e, 0x5f, 0x8a, 0x5a, 0xbd,
  0x36, 0x82, 0xb1, 0x3d, 0x16, 0x3b, 0xc5, 0x3d, 0xfd, 0x4f, 0xa4, 0x3d,
  0x73, 0x7f, 0x85, 0xbd, 0x19, 0x7a, 0x27, 0x3e, 0x24, 0x03, 0xbb, 0xbd,
  0xd3, 0x98, 0x22, 0x3e, 0x80, 0xed, 0x63, 0x3e, 0x92, 0xd1, 0x88, 0x3d,
  0xe4, 0x0a, 0xac, 0xbd, 0x27, 0x97, 0x7f, 0x3e, 0xdc, 0x15, 0x60, 0xbd,
  0x34, 0x25, 0x38, 0xbd, 0x96, 0x55, 0x71, 0x3e, 0x50, 0xcb, 0xeb, 0x3d,
  0x0d, 0x90, 0x9d, 0x3d, 0xb1, 0x9c, 0x41, 0x3e, 0x4c, 0x69, 0x86, 0x3d,
  0xdb, 0xab, 0xbd, 0xbc, 0xec, 0xba, 0x12, 0x3e, 0x1f, 0x9d, 0x58, 0x3d,
  0x60, 0x19, 0xa7, 0x3c, 0x33, 0x3d, 0xa9, 0x3e, 0xc3, 0x26, 0xb0, 0x3c,
  0xa3, 0x8b, 0x3e, 0x3d, 0xf2, 0x88, 0x5f, 0x3e, 0xfb, 0xbe, 0xba, 0xbd,
  0x8e, 0x28, 0xf6, 0x3b, 0x36, 0x8e, 0x23, 0x3e, 0x9e, 0x04, 0x57, 0x3d,
  0xbf, 0x63, 0xb5, 0x3d, 0xad, 0x69, 0x14, 0x3e, 0x9b, 0x73, 0x0a, 0xbd,
  0x90, 0xc4, 0xf1, 0x3d, 0x8a, 0x76, 0xa4, 0x3d, 0x39, 0xff, 0x9c, 0x3d,
  0x2d, 0x33, 0xbc, 0xbd, 0x45, 0xe6, 0x01, 0x3e, 0x5a, 0x47, 0x15, 0x3e,
  0x7b, 0xd5, 0x0e, 0x3e, 0xb2, 0xa4, 0x0a, 0x3e, 0xb6, 0x56, 0x05, 0xbd,
  0x18, 0x20, 0xad, 0x3d, 0xe8, 0x1f, 0x26, 0x3e, 0x77, 0x48, 0x42, 0x3c,
  0x01, 0x2e, 0xf0, 0xbc, 0x00, 0xc8, 0x0e, 0xbb, 0xe8, 0x49, 0xc1, 0x3c,
  0xe6, 0x95, 0xbd, 0xbd, 0xf4, 0x44, 0x2a, 0xbd, 0x34, 0x53, 0x94, 0xbd,
  0xcc, 0xc2, 0x39, 0xbd, 0x96, 0xcc, 0xec, 0x3d, 0x6a, 0xa6, 0x16, 0xbd,
  0x90, 0x6c, 0x84, 0x3c, 0x15, 0x98, 0xb9, 0xbd, 0x39, 0x4c, 0x80, 0xbd,
  0x9e, 0xae, 0x5b, 0xbd, 0xb8, 0x40, 0xb7, 0xbc, 0x1c, 0x60, 0xc2, 0xbd,
  0x4e, 0x84, 0xbc, 0xbd, 0x58, 0x17, 0xc7, 0xbd, 0x50, 0x06, 0x32, 0x3d,
  0x98, 0xf0, 0x97, 0x3d, 0x02, 0x43, 0xbc, 0xbd, 0xd8, 0x65, 0xcc, 0xbd,
  0x90, 0x47, 0x82, 0x3c, 0x39, 0x29, 0x96, 0xbd, 0xb6, 0x56, 0xf6, 0x3d,
  0x00, 0x4b, 0x8b, 0x3d, 0xae, 0xb3, 0x42, 0xbd, 0x0e, 0xe7, 0xb0, 0xbd,
  0x00, 0xba, 0xff, 0xbd, 0xa8, 0xaa, 0xaa, 0xbd, 0x0e, 0x7f, 0x58, 0xbd,
  0x86, 0xab, 0xaa, 0xbd, 0x24, 0xd5, 0xf5, 0xbd, 0xa3, 0x88, 0x47, 0x3d,
  0xfa, 0xe2, 0x25, 0x3d, 0x8a, 0x6b, 0x3b, 0xbd, 0xc0, 0x22, 0x48, 0x3d,
  0xfa, 0x7a, 0x07, 0x3d, 0xc1, 0x5e, 0xb0, 0x3d, 0x58, 0x08, 0xab, 0xbc,
  0xfc, 0x6b, 0x78, 0x3d, 0xe7, 0x2f, 0xd7, 0x3d, 0x50, 0x72, 0xb9, 0xbd,
  0x48, 0xb1, 0x71, 0xbd, 0x36, 0x98, 0xed, 0xbd, 0x94, 0x1f, 0xea, 0xbd,
  0xc4, 0xbf, 0x1f, 0xbd, 0x39, 0x36, 0xbc, 0x3d, 0x92, 0x96, 0x09, 0x3d,
  0x64, 0x19, 0x80, 0xbd, 0x86, 0xc3, 0x89, 0x3c, 0x8e, 0x38, 0xc3, 0x3d,
  0x72, 0xa5, 0xd7, 0x3d, 0x3d, 0x56, 0x0b, 0xbe, 0x26, 0xda, 0x3b, 0xbd,
  0x6c, 0x72, 0x61, 0xbd, 0x80, 0xcd, 0x93, 0x3a, 0x9a, 0xe5, 0xe9, 0x3d,
  0x00, 0x32, 0xb4, 0xbb, 0x80, 0x94, 0xa8, 0xbc, 0x74, 0xf1, 0x05, 0xbe,
  0xf8, 0x78, 0x35, 0x3d, 0x02, 0x98, 0xb5, 0x3d, 0x27, 0x3a, 0x02, 0x3e,
  0xf2, 0x0b, 0xfd, 0x3d, 0x9e, 0xa7, 0x78, 0xbd, 0xe2, 0x4e, 0x96, 0xbd,
  0x24, 0x8a, 0xbb, 0xbc, 0x34, 0x22, 0x6f, 0x3d, 0x96, 0x9c, 0xd7, 0xbd,
  0xd7, 0x9d, 0x9d, 0xbd, 0x50, 0xd5, 0xc2, 0xbc, 0xc0, 0x42, 0x52, 0xbc,
  0x01, 0x4b, 0x07, 0xbe, 0x9c, 0xeb, 0xb5, 0x3d, 0x6c, 0x5c, 0x91, 0xbd,
  0x74, 0x12, 0xd5, 0x3d, 0xd1, 0x6b, 0x0a, 0xbe, 0x16, 0xeb, 0xb6, 0x3d,
  0x07, 0x7a, 0x97, 0xbd, 0xf7, 0xfe, 0x9e, 0xbd, 0x8d, 0x53, 0x0a, 0x3e,
  0x56, 0x79, 0xfb, 0xbd, 0xe8, 0x9d, 0xaf, 0x3d, 0x12, 0x43, 0x5b, 0xbd,
  0x60, 0x5b, 0x0a, 0xbe, 0xe0, 0xcc, 0xe7, 0xbd, 0x8a, 0x7f, 0x6d, 0xbd,
  0x98, 0x4a, 0xd4, 0x3c, 0xb2, 0x3a, 0xe3, 0xbd, 0xa1, 0xa4, 0xc3, 0xbd,
  0x7e, 0x06, 0xaf, 0xbd, 0x70, 0xf4, 0x49, 0x3d, 0x7c, 0x88, 0x4f, 0x3d,
  0xd0, 0x95, 0x5b, 0x3d, 0x28, 0x27, 0x6e, 0xbc, 0x00, 0xb6, 0xe7, 0xba,
  0x7e, 0x2b, 0x9f, 0xbd, 0xe1, 0xdd, 0x80, 0xbd, 0xa0, 0xab, 0xad, 0x3c,
  0xe0, 0x28, 0x96, 0x3c, 0x02, 0xcf, 0xc0, 0xbd, 0x1b, 0x6c, 0x09, 0x3e,
  0xd2, 0xa8, 0x21, 0xbd, 0xa0, 0x56, 0xed, 0x3c, 0xf8, 0x36, 0x9e, 0x3d,
  0xca, 0x41, 0x96, 0x3d, 0x58, 0x4a, 0xe5, 0x3c, 0x18, 0xb2, 0xb4, 0x3d,
  0x84, 0x9d, 0xd7, 0xbc, 0xec, 0x2b, 0x8c, 0x3e, 0x3a, 0x7a, 0x32, 0x3e,
  0xf7, 0x58, 0xed, 0xbd, 0x52, 0xb1, 0x93, 0x3e, 0xee, 0x98, 0x01, 0x3e,
  0xac, 0x35, 0x21, 0x3e, 0xc8, 0xd3, 0xa4, 0x3e, 0x87, 0x1b, 0x1b, 0x3e,
  0x24, 0x1c, 0x51, 0xbd, 0xb2, 0xf6, 0xd7, 0x3d, 0xc1, 0xa2, 0x2d, 0x3d,
  0xbd, 0xa3, 0xb6, 0xbd, 0x00, 0xd2, 0xaf, 0x3d, 0x5d, 0x6b, 0xb0, 0x3c,
  0xea, 0x66, 0xd6, 0x3d, 0x36, 0x1e, 0xf1, 0x3d, 0x04, 0x02, 0xa8, 0xbb,
  0x81, 0xd1, 0x1c, 0x3d, 0xb6, 0xce, 0x64, 0x3e, 0xe3, 0xc6, 0x40, 0x3b,
  0x77, 0xcd, 0xb5, 0xbc, 0xbe, 0xcf, 0xa9, 0x3e, 0xfb, 0x20, 0x1b, 0xbd,
  0x75, 0xa6, 0x10, 0x3e, 0x1c, 0x1a, 0x99, 0x3e, 0x89, 0xdd, 0x19, 0xbd,
  0x27, 0x60, 0x03, 0x3e, 0x6a, 0xe6, 0x1c, 0x3e, 0x26, 0x1f, 0x58, 0xbd,
  0xb9, 0x11, 0xee, 0xbc, 0x4d, 0x2b, 0x64, 0x3e, 0x12, 0x7b, 0xf3, 0x3d,
  0x38, 0x51, 0x25, 0x3d, 0x7a, 0x9e, 0x6f, 0x3e, 0x40, 0xb4, 0x25, 0x3d,
  0x00, 0xe6, 0xd8, 0x3c, 0x01, 0xc1, 0x65, 0x3e, 0xc1, 0xdd, 0x81, 0xbd,
  0xf6, 0x59, 0x8d, 0x3c, 0x06, 0xbd, 0x35, 0x3e, 0x55, 0x2a, 0x08, 0x3e,
  0x1b, 0x6e, 0x00, 0x3d, 0x93, 0x72, 0x56, 0x3e, 0xac, 0xa8, 0x09, 0x3e,
  0x13, 0xc4, 0xfa, 0x3c, 0xd8, 0xd5, 0xad, 0x3e, 0xf6, 0xbb, 0x93, 0xbd,
  0xa4, 0x63, 0xd6, 0x3d, 0x75, 0x21, 0xdb, 0x3d, 0xdf, 0x73, 0x00, 0x3e,
  0x75, 0x77, 0x3b, 0xbd, 0x51, 0x1a, 0xf4, 0x3d, 0x0c, 0x5d, 0x8e, 0x3d,
  0x99, 0xa4, 0x73, 0x3d, 0x52, 0xea, 0xff, 0xff, 0x04, 0x00, 0x00, 0x00,
  0x80, 0x00, 0x00, 0x00, 0x9e, 0xf0, 0x9b, 0xbe, 0x75, 0xaa, 0x8b, 0x3e,
  0xd6, 0x20, 0xbf, 0xbe, 0x68, 0x10, 0xd4, 0x3e, 0x46, 0x16, 0xca, 0x3e,
  0xfe, 0x7f, 0x59, 0x3e, 0x1d, 0xbc, 0xb8, 0xbe, 0x71, 0x9a, 0x09, 0x3e,
  0xbd, 0x1d, 0xbc, 0x3e, 0x8e, 0x99, 0xcb, 0xbd, 0xf9, 0x2f, 0x53, 0xbe,
  0xc9, 0x00, 0x78, 0xbd, 0x3a, 0xdf, 0x38, 0x3e, 0xbf, 0x52, 0x2d, 0x3e,
  0x26, 0x46, 0xeb, 0xbd, 0x1a, 0xa1, 0xbc, 0xbe, 0x24, 0x14, 0x45, 0x3e,
  0x6a, 0xd3, 0x32, 0x3d, 0xa0, 0x89, 0x5f, 0xbd, 0x0b, 0x83, 0x24, 0x3c,
  0xbb, 0x11, 0x76, 0x3e, 0x58, 0x1c, 0xb6, 0x3e, 0xec, 0x1c, 0x07, 0x3e,
  0x53, 0xc3, 0x58, 0x3e, 0xc8, 0x1b, 0x1d, 0x3d, 0x82, 0xae, 0xaf, 0x3d,
  0x5e, 0x57, 0xcb, 0xbd, 0xb2, 0xf8, 0x4f, 0x3e, 0x3a, 0xa9, 0x34, 0xbe,
  0x3e, 0xc2, 0xb5, 0xbe, 0x74, 0xd5, 0xd5, 0x3e, 0x58, 0x2d, 0xfc, 0x3d,
  0xde, 0xea, 0xff, 0xff, 0x04, 0x00, 0x00, 0x00, 0x00, 0x10, 0x00, 0x00,
  0xe2, 0x7d, 0x2f, 0x3e, 0x0c, 0xf5, 0x84, 0x3e, 0xc4, 0x55, 0x7d, 0xbd,
  0x93, 0xb1, 0xec, 0x3b, 0x0a, 0x2c, 0xd7, 0x3d, 0x6a, 0x9d, 0x55, 0x3e,
  0x72, 0xee, 0x8f, 0x3e, 0x67, 0xcf, 0x0b, 0xbe, 0x98, 0xfd, 0x02, 0xbd,
  0x78, 0x34, 0xdf, 0x3d, 0xa0, 0x8a, 0x2f, 0x3e, 0x23, 0x4b, 0x28, 0x3e,
  0x99, 0x7c, 0x22, 0xbc, 0xd4, 0x78, 0x82, 0xbe, 0xd1, 0x61, 0x92, 0x3e,
  0xb6, 0x19, 0x8f, 0xbd, 0x5e, 0x46, 0x95, 0xbe, 0x94, 0xa0, 0xbb, 0xbd,
  0x16, 0x25, 0x7a, 0x3d, 0x67, 0xcf, 0x71, 0x3d, 0x88, 0x35, 0x94, 0xbe,
  0x69, 0x8c, 0x9a, 0x3e, 0x6a, 0x8f, 0x5d, 0x3e, 0x91, 0xd4, 0xa2, 0xbe,
  0xf6, 0x05, 0x11, 0x3e, 0xb2, 0x54, 0x2a, 0x3e, 0xf0, 0xe7, 0xa8, 0xbc,
  0xd6, 0x77, 0xc3, 0xbd, 0x26, 0xb5, 0x69, 0x3e, 0x9c, 0x1c, 0xe1, 0xbd,
  0x1f, 0x54, 0xf7, 0xbd, 0x4e, 0x93, 0xe6, 0xbd, 0xf9, 0xd0, 0x89, 0xbe,
  0xea, 0xb0, 0x7e, 0xbe, 0x52, 0x32, 0x77, 0xbe, 0x22, 0x5e, 0x55, 0x3d,
  0xfe, 0xbc, 0xf3, 0xbd, 0xaf, 0xc6, 0x65, 0x3e, 0x84, 0xaa, 0x97, 0x3d,
  0xea, 0x24, 0x1d, 0xbe, 0x17, 0x98, 0x8f, 0xbd, 0x65, 0xa4, 0x47, 0xbe,
  0x57, 0xe9, 0x0a, 0x3e, 0x8e, 0x1f, 0x6a, 0x3e, 0xbe, 0x79, 0x01, 0x3e,
  0x26, 0x0a, 0x25, 0xbd, 0xd5, 0x07, 0x96, 0x3e, 0xf3, 0x19, 0x4d, 0xbe,
  0x1b, 0x76, 0xc6, 0xbd, 0xa0, 0x93, 0x05, 0xbe, 0x7c, 0x80, 0x89, 0x3d,
  0x80, 0x7e, 0x8d, 0x3e, 0x0a, 0xd8, 0x56, 0x3e, 0x32, 0xc9, 0x7b, 0xbe,
  0xa0, 0x0f, 0x0f, 0x3d, 0x84, 0x91, 0x91, 0x39, 0x0b, 0x8b, 0x72, 0x3e,
  0xa7, 0xb2, 0x55, 0xbe, 0xd2, 0x9c, 0xff, 0xbd, 0x44, 0x10, 0x7b, 0xbe,
  0x9a, 0xa1, 0x30, 0x3e, 0xd8, 0xdc, 0x38, 0x3d, 0xf5, 0x75, 0x9a, 0x3e,
  0x43, 0x8b, 0x76, 0x3d, 0xc9, 0xc2, 0x2b, 0x3d, 0xb6, 0xac, 0x67, 0x3e,
  0x81, 0xdc, 0x99, 0x3e, 0x02, 0x0b, 0x35, 0x3e, 0x8a, 0xdc, 0xee, 0xbd,
  0x20, 0xc2, 0x53, 0x3e, 0x58, 0x7e, 0x12, 0x3d, 0x03, 0x11, 0x83, 0x3e,
  0xda, 0x39, 0x85, 0xbd, 0xe6, 0x5c, 0xf7, 0xbd, 0x46, 0x90, 0x0e, 0xbd,
  0x9d, 0x79, 0x44, 0xbe, 0xb6, 0x49, 0x38, 0xbe, 0xbc, 0x7c, 0x79, 0x3d,
  0x5c, 0xd3, 0x23, 0x3e, 0xe6, 0xf3, 0x7f, 0xbd, 0x5e, 0x38, 0xc4, 0xbd,
  0xdb, 0xae, 0x81, 0x3e, 0xed, 0xf2, 0x54, 0xbe, 0xf1, 0x5e, 0x5b, 0x3e,
  0x92, 0xa7, 0x58, 0xbc, 0x38, 0x23, 0x58, 0xbd, 0xd9, 0x9f, 0x12, 0xbe,
  0xdf, 0xae, 0xc5, 0x39, 0x16, 0xf6, 0x6d, 0xbe, 0x9c, 0x35, 0x68, 0x3e,
  0xb7, 0x2d, 0x27, 0xbe, 0x06, 0x58, 0x88, 0x3e, 0xc4, 0xcf, 0xcd, 0x3d,
  0x3a, 0x75, 0x5b, 0x3e, 0xb7, 0x0e, 0xce, 0xbb, 0x1d, 0x27, 0x10, 0x3e,
  0xb6, 0xe9, 0x3e, 0xbe, 0x20, 0x6b, 0x03, 0xbd, 0xc4, 0xdd, 0x19, 0x3e,
  0x40, 0xad, 0x39, 0x3e, 0xe0, 0x88, 0xf4, 0x3c, 0x9a, 0xed, 0x96, 0xbe,
  0xfb, 0xc9, 0x1b, 0xbe, 0xe4, 0xd8, 0x70, 0xbe, 0x80, 0x0b, 0xb8, 0xbc,
  0x50, 0x89, 0xf1, 0x3d, 0x52, 0xf4, 0xc6, 0xbd, 0x24, 0xdc, 0x60, 0xbe,
  0x3e, 0x59, 0x4a, 0x3e, 0x3e, 0xb7, 0x28, 0x3e, 0xc1, 0xd7, 0x89, 0x3e,
  0x40, 0x9c, 0x1d, 0x3c, 0xd0, 0x0e, 0x0e, 0x3e, 0x93, 0x35, 0x2e, 0xbe,
  0x91, 0xb0, 0x13, 0xbe, 0xdc, 0xdc, 0x4c, 0xbe, 0x82, 0x07, 0x8a, 0xbe,
  0x36, 0x66, 0x63, 0xbe, 0x00, 0xf5, 0x96, 0xbe, 0x26, 0x64, 0x85, 0xbe,
  0x90, 0x11, 0x31, 0x3d, 0xb0, 0x10, 0xd9, 0xbc, 0x00, 0x94, 0xa4, 0x3c,
  0x64, 0xe6, 0xa8, 0xbd, 0x28, 0x32, 0x0e, 0xbe, 0xbc, 0x48, 0x04, 0xbe,
  0x28, 0x5d, 0x1a, 0x3d, 0x78, 0x3b, 0x43, 0x3d, 0x26, 0x6a, 0x50, 0x3e,
  0xf8, 0xff, 0x50, 0xbd, 0xdb, 0x8a, 0x9a, 0x3e, 0x4d, 0xc5, 0x2f, 0xbe,
  0xeb, 0xc3, 0x8a, 0xbe, 0xf3, 0xe7, 0x4b, 0xbe, 0x40, 0x61, 0xa0, 0x3c,
  0x00, 0x0e, 0x11, 0x3a, 0x72, 0x56, 0x37, 0xbe, 0x1b, 0x5d, 0x8f, 0x3e,
  0xb0, 0xcf, 0x44, 0xbe, 0x7f, 0x7e, 0x99, 0xbe, 0x20, 0x3b, 0x44, 0xbd,
  0x8c, 0xe9, 0x73, 0xbd, 0x80, 0xb6, 0xf3, 0xbd, 0x9e, 0x0b, 0x7c, 0x3e,
  0x90, 0x6d, 0x84, 0x3c, 0x00, 0x3b, 0x9c, 0xbd, 0xae, 0xcd, 0x77, 0x3e,
  0x5e, 0xbd, 0x30, 0xbe, 0xeb, 0x5a, 0x93, 0xbe, 0x00, 0xe4, 0xa5, 0xbb,
  0x94, 0xc1, 0x43, 0x3e, 0xd8, 0xb8, 0x0d, 0x3d, 0x00, 0x69, 0x15, 0xbd,
  0xdd, 0x6b, 0x80, 0x3e, 0x7c, 0xe3, 0x5a, 0xbe, 0xd2, 0x99, 0x16, 0x3e,
  0xdc, 0xe4, 0x3b, 0xbe, 0xc9, 0x7e, 0x09, 0xbe, 0xb8, 0x89, 0x0a, 0x3d,
  0x73, 0xd4, 0x64, 0xbe, 0x5b, 0x45, 0x1c, 0xbe, 0x52, 0xed, 0x33, 0x3e,
  0xb3, 0xca, 0x93, 0x3e, 0x5b, 0x8d, 0x95, 0xbc, 0xef, 0xa3, 0xb8, 0x3d,
  0x95, 0xa5, 0x7f, 0xbe, 0xc1, 0xf2, 0x31, 0xbd, 0x67, 0x7e, 0x23, 0xbd,
  0xa7, 0xa0, 0xe3, 0xbd, 0xdb, 0x17, 0x2a, 0xbe, 0x3a, 0x89, 0x5c, 0x3e,
  0xa0, 0x8a, 0x85, 0x3d, 0x16, 0xea, 0x91, 0xbe, 0x2c, 0x23, 0xf7, 0x3d,
  0x80, 0x33, 0x46, 0x3e, 0x08, 0xb6, 0x79, 0x3d, 0xca, 0xdc, 0x5c, 0x3e,
  0x90, 0x8c, 0x2c, 0xbd, 0x74, 0xbf, 0x85, 0x3e, 0xb1, 0xbe, 0x83, 0xbe,
  0x91, 0xe4, 0x6d, 0x3e, 0xaf, 0x68, 0x0b, 0xbe, 0x28, 0x84, 0x53, 0xbe,
  0x0a, 0xcc, 0x3e, 0xbe, 0x8e, 0x31, 0x2b, 0xbd, 0x85, 0x2a, 0xb7, 0x3d,
  0x40, 0x4b, 0x07, 0x3d, 0x12, 0x64, 0x33, 0x3e, 0x4c, 0x26, 0x89, 0x3d,
  0xe4, 0x3f, 0xd9, 0x3d, 0x8d, 0x3c, 0xfd, 0xbd, 0xb4, 0xf7, 0x39, 0xbe,
  0x9f, 0x32, 0x87, 0x3e, 0xd2, 0xc7, 0xf5, 0xba, 0xa2, 0xb4, 0x7a, 0x3e,
  0x55, 0x1e, 0x77, 0xbe, 0x13, 0x04, 0x97, 0xbd, 0x3b, 0x4f, 0x77, 0x3e,
  0x6b, 0xb5, 0xdc, 0x3d, 0xa7, 0xbb, 0x2a, 0x3e, 0x20, 0x90, 0xf8, 0x3d,
  0x70, 0x82, 0xc8, 0xbd, 0x45, 0x25, 0xa2, 0xbe, 0x9b, 0x51, 0x1f, 0xbe,
  0x96, 0xe1, 0x38, 0x3e, 0x12, 0xa8, 0xbe, 0x3d, 0x28, 0x95, 0x09, 0x3e,
  0x02, 0x2b, 0xbf, 0xbb, 0xac, 0x49, 0x1c, 0xbe, 0xe0, 0x18, 0x61, 0xbd,
  0xbe, 0x9b, 0x8b, 0x3e, 0x06, 0x05, 0x1d, 0xbe, 0x03, 0x98, 0x40, 0xbd,
  0xfe, 0x15, 0xce, 0xbd, 0x08, 0xef, 0x88, 0xbd, 0xfe, 0x6e, 0x59, 0xbd,
  0x9d, 0xa1, 0x82, 0xbd, 0x2c, 0x25, 0x9f, 0xbe, 0xf5, 0x57, 0x9c, 0x3e,
  0xeb, 0xc5, 0x5a, 0xbd, 0x5e, 0x15, 0x02, 0x3e, 0x37, 0xd1, 0x93, 0x3e,
  0x9d, 0xfd, 0xb3, 0x3d, 0x2b, 0x5e, 0xa0, 0xbd, 0xc4, 0x1a, 0x98, 0xbd,
  0x89, 0x7c, 0x3b, 0x3e, 0x70, 0xcc, 0x29, 0xbe, 0x14, 0xfc, 0xd9, 0xbd,
  0x7a, 0x96, 0x4a, 0x3e, 0x98, 0xc8, 0x22, 0xbe, 0xb7, 0x7d, 0xc0, 0x3d,
  0x1f, 0x4d, 0x8b, 0x3d, 0xac, 0x47, 0x27, 0xbe, 0x0e, 0xf9, 0x17, 0xbe,
  0x47, 0x46, 0x27, 0xbe, 0x92, 0x98, 0xa7, 0xbd, 0x56, 0xb9, 0x0e, 0xbe,
  0x72, 0x8e, 0xc7, 0x3d, 0x3e, 0x7c, 0xaa, 0xbd, 0xc5, 0x34, 0x91, 0x3e,
  0xec, 0x13, 0x00, 0x3e, 0x3c, 0x3a, 0xf4, 0x3d, 0x03, 0xd4, 0x2f, 0xbd,
  0x06, 0x6b, 0xa1, 0xbd, 0x00, 0x24, 0x25, 0x3e, 0x32, 0x55, 0x2b, 0xbe,
  0x12, 0x4c, 0xb3, 0xbd, 0xa0, 0xae, 0x11, 0xbe, 0xdc, 0x12, 0xde, 0x3d,
  0xd2, 0x19, 0x80, 0x3e, 0x8a, 0x8f, 0x3e, 0x3e, 0xd8, 0xf4, 0x19, 0x3e,
  0x68, 0x87, 0xb0, 0xbd, 0x7c, 0x8f, 0x44, 0xbe, 0x89, 0x14, 0x75, 0x3e,
  0x0d, 0x82, 0x35, 0x3e, 0x25, 0x7c, 0x07, 0xbe, 0x1c, 0x1c, 0x23, 0xbe,
  0x42, 0xa5, 0x49, 0xbe, 0xb1, 0x90, 0x91, 0x3d, 0x4b, 0x67, 0x15, 0xbe,
  0xe7, 0x85, 0x34, 0x3d, 0xb4, 0x8c, 0x65, 0xbe, 0xd2, 0xf3, 0x80, 0xbd,
  0xe3, 0x46, 0x9c, 0x3e, 0x34, 0x90, 0xe9, 0x3d, 0x04, 0x84, 0x99, 0x3e,
  0xe4, 0xb0, 0x5c, 0x3e, 0x70, 0x71, 0x9c, 0x3e, 0xbe, 0x27, 0x55, 0x3e,
  0xb6, 0x0e, 0x49, 0x3e, 0x19, 0x08, 0x38, 0x3d, 0xa6, 0x3b, 0xab, 0xbd,
  0x3a, 0x6c, 0x71, 0xbe, 0x9a, 0x77, 0x51, 0x3d, 0x3b, 0xb7, 0x39, 0x3e,
  0x16, 0xb8, 0x18, 0xbe, 0xfd, 0xf0, 0x98, 0x3e, 0xda, 0xf9, 0x92, 0xbd,
  0x00, 0xb2, 0x8f, 0x3e, 0x90, 0x71, 0x97, 0x3e, 0xb3, 0xca, 0x90, 0x3e,
  0x60, 0x98, 0x10, 0x3c, 0xa3, 0x30, 0x1e, 0x3e, 0xb8, 0xdf, 0x1b, 0x3d,
  0xae, 0x10, 0x04, 0xbe, 0x9d, 0x91, 0x7f, 0xbe, 0x5b, 0xa4, 0x75, 0x3e,
  0xf6, 0xf4, 0xbc, 0xbd, 0xf7, 0x2f, 0x97, 0xbe, 0x7f, 0xb1, 0x89, 0x3e,
  0x0b, 0x87, 0x07, 0xbd, 0xfa, 0x53, 0xf9, 0xbd, 0xe3, 0xa9, 0xf9, 0xbc,
  0x1d, 0xed, 0x84, 0x3e, 0x7c, 0x38, 0x9c, 0xbd, 0xb0, 0x72, 0x05, 0x3e,
  0xe0, 0x53, 0x99, 0x3c, 0xb5, 0xfd, 0x11, 0x3e, 0x33, 0x27, 0x03, 0x3e,
  0xfd, 0x75, 0xc7, 0x3c, 0x36, 0x26, 0x6e, 0xbe, 0xbf, 0xed, 0x02, 0xbe,
  0x29, 0x85, 0x95, 0x3e, 0xc3, 0x00, 0xdc, 0xbc, 0xa8, 0xd3, 0x17, 0x3d,
  0xb5, 0x02, 0x61, 0x3d, 0x5b, 0xc3, 0x58, 0x3e, 0xf5, 0x19, 0x73, 0xbe,
  0xb0, 0x8e, 0x35, 0xbd, 0x36, 0x1a, 0x04, 0x3e, 0xaf, 0xe8, 0x1a, 0x3e,
  0xa2, 0xb1, 0x71, 0xbe, 0x59, 0x27, 0xfd, 0x3d, 0x3a, 0x0e, 0x51, 0x3e,
  0x87, 0x38, 0x74, 0x3e, 0x5a, 0xa7, 0x61, 0x3e, 0xb2, 0xcd, 0x9b, 0xbd,
  0x9c, 0xcd, 0x6f, 0xbb, 0x99, 0xfd, 0x3a, 0x3c, 0x40, 0xb9, 0x09, 0x3e,
  0x49, 0xcb, 0x8b, 0x3e, 0x62, 0x28, 0xf6, 0xbd, 0x00, 0x51, 0xb0, 0x3a,
  0x19, 0xb0, 0x33, 0xbe, 0xc2, 0x0f, 0x22, 0x3e, 0xd2, 0x26, 0x34, 0x3e,
  0x0d, 0x51, 0x85, 0x3e, 0xb8, 0xe8, 0x25, 0x3e, 0xb0, 0xa0, 0x60, 0xbd,
  0x94, 0xca, 0x8b, 0xbe, 0x60, 0x73, 0x3b, 0xbc, 0x97, 0xb9, 0x48, 0xbe,
  0x66, 0x5c, 0xd0, 0xbd, 0xd0, 0xe4, 0xef, 0x3d, 0x60, 0x63, 0xd8, 0xbc,
  0xce, 0x52, 0x57, 0x3e, 0x3e, 0xb2, 0x3d, 0x3e, 0x6f, 0x30, 0x92, 0xbe,
  0x54, 0x0a, 0x8e, 0x3d, 0x33, 0xd2, 0x9b, 0xbe, 0xb0, 0x6c, 0x23, 0x3d,
  0xe6, 0xae, 0x8f, 0xbe, 0xcf, 0x94, 0x81, 0x3e, 0x8e, 0x66, 0x9c, 0xbd,
  0x7a, 0x88, 0x86, 0xbe, 0xb7, 0x20, 0x5e, 0xbe, 0x9e, 0xf9, 0x0e, 0xbe,
  0x32, 0x20, 0x8d, 0xbe, 0xfc, 0x45, 0x2d, 0xbe, 0x01, 0xb1, 0x8e, 0xbe,
  0xfe, 0x88, 0x94, 0xbe, 0x72, 0x54, 0x88, 0x3e, 0xdd, 0x33, 0xa5, 0xbc,
  0x40, 0x63, 0xea, 0xbb, 0x90, 0x04, 0xd0, 0x3d, 0xb0, 0x5a, 0xce, 0xbd,
  0x01, 0xd1, 0x35, 0xbe, 0x6a, 0x85, 0x1a, 0x3c, 0x68, 0x82, 0x84, 0x3e,
  0xd0, 0x69, 0x9c, 0x3c, 0x6f, 0x42, 0x19, 0xbe, 0xc1, 0x11, 0x0d, 0xbe,
  0xb5, 0x48, 0x33, 0x3e, 0x9e, 0x81, 0xae, 0xbc, 0xa5, 0xe5, 0xea, 0xbd,
  0x30, 0xa0, 0x9c, 0xbe, 0x2b, 0x9f, 0x44, 0x3d, 0x43, 0x85, 0x8f, 0xbe,
  0x1e, 0x66, 0x60, 0x3e, 0x5a, 0x65, 0x93, 0xbc, 0x37, 0xe8, 0x49, 0xbe,
  0x89, 0x84, 0x4f, 0x3e, 0x5c, 0xd0, 0x18, 0x3e, 0xde, 0x05, 0x43, 0xbe,
  0x44, 0x7c, 0x55, 0x3e, 0xc1, 0x2b, 0x4c, 0xbe, 0x35, 0x0c, 0x06, 0xbe,
  0x44, 0xb4, 0x14, 0x3e, 0xb3, 0xb2, 0x06, 0x3e, 0x3c, 0x0f, 0x8a, 0x3d,
  0x3a, 0xa5, 0x9e, 0xbd, 0xf8, 0x02, 0x77, 0x3d, 0x1b, 0xdc, 0x3b, 0xbc,
  0xaf, 0x8a, 0x3c, 0x3e, 0x7c, 0xf0, 0x8e, 0x3e, 0x20, 0x44, 0xcd, 0xbc,
  0x08, 0x7d, 0x80, 0xbe, 0xdd, 0x0c, 0x97, 0x3e, 0xd5, 0x62, 0x38, 0xbe,
  0x08, 0x2f, 0x89, 0x3e, 0xf7, 0xaa, 0x4c, 0xbd, 0xde, 0x25, 0xb5, 0x3a,
  0x52, 0x0f, 0xcd, 0xbd, 0x12, 0xcf, 0x8d, 0x3e, 0x55, 0x25, 0x6d, 0x3d,
  0x71, 0x5a, 0x1e, 0x3e, 0x56, 0x2b, 0x14, 0xbe, 0xe6, 0xfa, 0x16, 0x3e,
  0x9a, 0x62, 0x92, 0x3e, 0x18, 0x37, 0x10, 0x3e, 0x20, 0x04, 0x66, 0x3d,
  0xe9, 0x25, 0xf8, 0x3b, 0x98, 0xdc, 0xd8, 0xbd, 0x5d, 0x8a, 0x9e, 0x3e,
  0x7c, 0xfd, 0xf2, 0xbd, 0x30, 0x6b, 0x3b, 0x3e, 0xe0, 0xc5, 0x8d, 0x3e,
  0x4e, 0x06, 0x60, 0xbe, 0xd5, 0xcf, 0x83, 0x3e, 0x78, 0x7c, 0x0a, 0xbd,
  0xaa, 0xd9, 0x4f, 0xbe, 0x46, 0xc6, 0x55, 0x3e, 0x47, 0xc2, 0x01, 0xbe,
  0xd8, 0xa7, 0x7a, 0xbe, 0xea, 0xd5, 0xe5, 0x3c, 0x5c, 0xc1, 0x7d, 0xbe,
  0x8b, 0xfb, 0xa0, 0x3e, 0xc7, 0x69, 0x81, 0x3e, 0x5b, 0x08, 0xf8, 0x3d,
  0xf5, 0x55, 0xa7, 0x3e, 0x9c, 0x55, 0x44, 0xbe, 0xcd, 0x60, 0x74, 0x3e,
  0x35, 0x33, 0xfa, 0xbd, 0xcd, 0xd5, 0xfe, 0x3d, 0xb2, 0xd7, 0xa0, 0xbd,
  0x7e, 0x5b, 0x0a, 0xbe, 0x38, 0x76, 0x89, 0x3e, 0xba, 0xa6, 0xa5, 0x3b,
  0x8d, 0xa5, 0x30, 0x3e, 0xbc, 0xa7, 0xe9, 0x3d, 0x94, 0x05, 0x0d, 0x3e,
  0xfd, 0x2b, 0x91, 0x3e, 0x23, 0x50, 0x97, 0xbe, 0xc2, 0xf5, 0x8d, 0x3e,
  0xcd, 0x27, 0x56, 0xbe, 0x2d, 0xb2, 0x7b, 0xbe, 0x50, 0xb3, 0x57, 0x3d,
  0x00, 0x43, 0x79, 0xbc, 0x60, 0x45, 0x85, 0xbe, 0xa3, 0x90, 0xc0, 0xbd,
  0x65, 0x15, 0x42, 0x3e, 0x20, 0x99, 0x0a, 0x3c, 0x44, 0x56, 0x18, 0x3d,
  0x52, 0xfc, 0x09, 0x3e, 0x20, 0x69, 0x03, 0x3d, 0xef, 0x28, 0x8a, 0xbd,
  0x56, 0xb5, 0x92, 0x3e, 0x47, 0x38, 0x2e, 0xbe, 0x09, 0xbb, 0x2c, 0xbb,
  0xac, 0x3e, 0x98, 0xbd, 0x15, 0x9c, 0xb3, 0xbd, 0x2d, 0xda, 0x60, 0x3e,
  0x10, 0xbc, 0x4a, 0x3e, 0x3e, 0x88, 0x62, 0xbe, 0x59, 0x70, 0x36, 0x3e,
  0xab, 0xab, 0x59, 0xbe, 0xb0, 0x64, 0xfa, 0x3c, 0x29, 0xd1, 0x09, 0xbe,
  0x14, 0x2f, 0x45, 0x3e, 0x56, 0x47, 0xa8, 0xbd, 0x87, 0x21, 0x7d, 0x3e,
  0x19, 0x26, 0x6c, 0xbe, 0x46, 0xf9, 0xbe, 0x3d, 0xce, 0x75, 0xfa, 0x3d,
  0x00, 0xc7, 0x9a, 0xba, 0xa0, 0xdb, 0x4f, 0x3e, 0xfe, 0x12, 0x03, 0x3e,
  0x09, 0x3c, 0x35, 0x3d, 0xd3, 0x0f, 0x89, 0x3e, 0xf3, 0x63, 0x94, 0x3e,
  0xc8, 0x47, 0x88, 0xbe, 0xe2, 0xb6, 0x05, 0x3e, 0x26, 0xaf, 0x08, 0x3e,
  0x10, 0xd8, 0xbb, 0xbc, 0xa3, 0xe7, 0x4a, 0xbe, 0x12, 0x90, 0x79, 0xbe,
  0xda, 0x55, 0x2d, 0x3e, 0x9b, 0xed, 0x69, 0xbd, 0xee, 0x22, 0x11, 0xbe,
  0xfc, 0x54, 0x0f, 0x3d, 0xc3, 0x63, 0x9a, 0xbe, 0x51, 0x4d, 0x1a, 0xbe,
  0x5a, 0xdf, 0x6c, 0x3e, 0x33, 0xc4, 0x82, 0x3d, 0x1e, 0xcf, 0xdf, 0x3d,
  0x45, 0xd1, 0x81, 0xbd, 0x93, 0x4c, 0xd3, 0xbc, 0x50, 0x14, 0xa4, 0xbd,
  0xfe, 0x4e, 0x3a, 0xbe, 0xc6, 0xf1, 0x99, 0x3d, 0x79, 0x9d, 0x2a, 0xbe,
  0x82, 0x7e, 0xe2, 0xbd, 0x8a, 0x52, 0x90, 0xbe, 0x30, 0xbb, 0x41, 0x3e,
  0x4e, 0x84, 0x32, 0x3e, 0xdd, 0x27, 0x0d, 0x3e, 0x74, 0xe2, 0x13, 0xbe,
  0x56, 0xdd, 0x50, 0x3e, 0x11, 0x4c, 0xd7, 0x3d, 0xa0, 0xee, 0x46, 0xbe,
  0x22, 0x02, 0x3f, 0x3e, 0xa2, 0xb3, 0x0a, 0xbe, 0xf2, 0x12, 0x08, 0x3d,
  0x98, 0xcf, 0x60, 0x3e, 0x7f, 0x61, 0x46, 0x3e, 0x76, 0x69, 0x72, 0xbe,
  0xb9, 0xd5, 0x8a, 0x3b, 0x42, 0x76, 0x3c, 0x3e, 0xd0, 0x21, 0x29, 0x3e,
  0xd0, 0xf8, 0x66, 0xbe, 0x9c, 0x97, 0x3d, 0xbe, 0xfc, 0x45, 0x76, 0xbe,
  0x8e, 0x15, 0x8d, 0xbe, 0xe4, 0x26, 0x18, 0x3e, 0x0a, 0x03, 0x36, 0xbe,
  0x80, 0xda, 0xcb, 0xbb, 0x22, 0x4a, 0x1d, 0x3e, 0x30, 0x82, 0xb6, 0x3d,
  0xe8, 0xaa, 0x6c, 0xbd, 0x0b, 0x41, 0x8c, 0xbe, 0x0e, 0x26, 0x72, 0x3e,
  0x91, 0x4e, 0x93, 0xbe, 0x68, 0x96, 0x1f, 0x3e, 0x6c, 0x9f, 0x6c, 0xbe,
  0x80, 0x29, 0xf4, 0xbb, 0x54, 0x50, 0x95, 0xbd, 0x7d, 0x07, 0x88, 0xbe,
  0x58, 0xfd, 0x4c, 0xbd, 0xf0, 0x49, 0xdf, 0x3c, 0x3a, 0x1f, 0xa5, 0xbd,
  0x4a, 0x34, 0x76, 0x3e, 0xe0, 0xcf, 0xba, 0xbd, 0xf0, 0x5f, 0xd2, 0x3d,
  0x20, 0x52, 0x5e, 0xbe, 0xfc, 0x5a, 0x93, 0xbd, 0x85, 0x7b, 0x60, 0xbe,
  0xb2, 0x1d, 0x7f, 0xbe, 0xeb, 0xeb, 0x83, 0x3e, 0xce, 0x92, 0x3f, 0x3e,
  0xc0, 0x43, 0x8e, 0xbc, 0xe0, 0x59, 0x45, 0x3e, 0x30, 0xee, 0x64, 0x3d,
  0xa8, 0xa0, 0x80, 0xbe, 0xc4, 0xd1, 0x5b, 0x3e, 0x88, 0x07, 0xfb, 0x3d,
  0xbe, 0x44, 0x6c, 0x3e, 0xe4, 0x80, 0x33, 0xbe, 0x79, 0xe7, 0x39, 0xbe,
  0xbd, 0x81, 0x4d, 0x3d, 0x47, 0xee, 0x92, 0x3e, 0x91, 0x52, 0x0f, 0x3e,
  0xe5, 0x3c, 0x05, 0x3e, 0xfe, 0xf2, 0x86, 0xbe, 0xf5, 0xa0, 0x7d, 0x3e,
  0xc4, 0x59, 0x6d, 0xbe, 0x31, 0xba, 0x6a, 0xbe, 0x37, 0xc7, 0xa1, 0x3e,
  0x13, 0xcc, 0x2d, 0xbe, 0x0f, 0xc9, 0x19, 0x3e, 0xf6, 0xac, 0xe5, 0xbc,
  0x6e, 0x63, 0xa5, 0xbd, 0x29, 0x4a, 0x8f, 0x3e, 0x1b, 0xdb, 0x74, 0xbd,
  0xa3, 0xd7, 0x2b, 0x3e, 0xdb, 0xf0, 0x91, 0x3e, 0xc3, 0xa6, 0x89, 0xbe,
  0x76, 0x6a, 0x84, 0xbe, 0x23, 0xd3, 0x21, 0x3d, 0xd2, 0x11, 0x87, 0x3e,
  0x05, 0x36, 0x0c, 0xbe, 0x9e, 0x67, 0x01, 0x3d, 0x6a, 0x26, 0x2a, 0x3e,
  0x90, 0x98, 0xf5, 0xbc, 0x78, 0xc7, 0xf6, 0xbd, 0x6c, 0xd0, 0xc0, 0xbb,
  0xbe, 0x39, 0x09, 0x3e, 0x61, 0x00, 0x53, 0xbe, 0x32, 0xfd, 0x18, 0x3e,
  0xaa, 0x9f, 0x85, 0xbd, 0xdc, 0x85, 0xaf, 0x3d, 0xe9, 0xba, 0x31, 0xbe,
  0xa4, 0xd1, 0x10, 0xbe, 0xcc, 0x8f, 0xbc, 0x3d, 0x28, 0xad, 0x04, 0xbd,
  0x5a, 0x09, 0xe4, 0xbd, 0x22, 0x5b, 0x20, 0x3e, 0x1f, 0xb0, 0x6d, 0xbe,
  0x09, 0x1b, 0x83, 0xbe, 0x26, 0x93, 0x0b, 0xbe, 0x6e, 0xba, 0x40, 0x3e,
  0xc8, 0x23, 0xea, 0xbd, 0x63, 0xc6, 0x92, 0x3e, 0x74, 0xbf, 0x8f, 0xbd,
  0x3b, 0xd3, 0x27, 0xbe, 0xce, 0x3c, 0x5c, 0x3e, 0x80, 0xe6, 0xd2, 0x3b,
  0x70, 0x89, 0xa9, 0xbc, 0x04, 0x57, 0x01, 0x3e, 0x80, 0xa3, 0x48, 0xbd,
  0xb0, 0x2b, 0x46, 0x3d, 0x36, 0x9d, 0x63, 0xbe, 0xec, 0xf0, 0x41, 0xbe,
  0xe0, 0xa7, 0xd8, 0x3d, 0x60, 0xc3, 0x5a, 0xbd, 0x02, 0x6e, 0x3f, 0xbe,
  0x50, 0x43, 0xe9, 0x3d, 0x41, 0x4a, 0x83, 0x3e, 0x38, 0xa6, 0x4b, 0xbe,
  0x7a, 0x67, 0x1e, 0x3e, 0x66, 0x27, 0x4d, 0xbe, 0xc9, 0x46, 0xc6, 0xbd,
  0xd2, 0xc3, 0x48, 0xbe, 0xd9, 0xe2, 0x72, 0xbe, 0x96, 0x4c, 0x92, 0xbe,
  0x39, 0x52, 0x75, 0xbe, 0x6e, 0x23, 0x7a, 0xba, 0x46, 0x8c, 0x42, 0x3e,
  0xb8, 0x48, 0x23, 0xbc, 0x0b, 0x22, 0x09, 0x3e, 0xff, 0x7e, 0x56, 0x3e,
  0xb0, 0x68, 0x58, 0xbe, 0xe0, 0x99, 0xde, 0xbc, 0xfc, 0xd5, 0x44, 0x3e,
  0xd6, 0xac, 0x1d, 0x3e, 0xa0, 0xf4, 0x42, 0x3e, 0xf6, 0x70, 0x4d, 0xbe,
  0xe7, 0x37, 0xe8, 0xbd, 0xd9, 0xc4, 0x5a, 0x3e, 0xb8, 0x45, 0x81, 0xbe,
  0x8f, 0x6a, 0x88, 0x3e, 0x07, 0x94, 0x6c, 0xbd, 0x8a, 0xcb, 0x1f, 0x3e,
  0x47, 0xfd, 0xfa, 0xbd, 0x91, 0xf7, 0x1f, 0xbe, 0x8e, 0xb1, 0x4e, 0xbe,
  0xb8, 0xa2, 0x12, 0x3e, 0x20, 0xcb, 0x92, 0xbe, 0x9a, 0xfa, 0x70, 0x3e,
  0x19, 0xcb, 0x48, 0x3d, 0x67, 0xc8, 0x9d, 0x3e, 0x1e, 0xfb, 0xf5, 0x3d,
  0xca, 0x85, 0x4c, 0x3e, 0x9d, 0x0d, 0xa5, 0x3e, 0xb1, 0x7d, 0x6d, 0x3e,
  0xe1, 0x9f, 0xca, 0xbd, 0xfc, 0xc5, 0x99, 0xbd, 0xa7, 0xed, 0xa9, 0xbd,
  0x85, 0xf3, 0x99, 0xbe, 0x49, 0x0d, 0x7e, 0xbe, 0x57, 0x12, 0x01, 0xbd,
  0x8b, 0x6d, 0x80, 0x3e, 0x25, 0x7c, 0x79, 0xbd, 0x6c, 0xd4, 0x6a, 0xbd,
  0x59, 0x35, 0x7d, 0xbe, 0x51, 0x01, 0x50, 0x3d, 0xa6, 0xcf, 0x73, 0x3e,
  0x81, 0x6f, 0x82, 0x3e, 0xb5, 0x2b, 0x11, 0x3d, 0x01, 0x51, 0x4c, 0x3e,
  0xe7, 0xd7, 0xff, 0xbb, 0x66, 0x3e, 0x9b, 0xbd, 0xd1, 0xbc, 0x04, 0xbe,
  0x6d, 0x72, 0x24, 0xbd, 0xaf, 0x63, 0xb4, 0x3c, 0x9a, 0xef, 0x0e, 0xbe,
  0x11, 0x21, 0x90, 0x3e, 0x1e, 0xf7, 0x86, 0xbe, 0x6f, 0x8f, 0x8b, 0x3e,
  0x9f, 0xe6, 0x90, 0x3e, 0xc6, 0x90, 0x4d, 0x3e, 0xfa, 0x3c, 0x2c, 0xbe,
  0x8f, 0x9e, 0x38, 0xbe, 0xe5, 0xf3, 0xe9, 0x3c, 0xd8, 0x70, 0x4d, 0x3d,
  0x38, 0x77, 0xe9, 0x3d, 0x72, 0x33, 0xb1, 0x3d, 0xc3, 0xc7, 0xee, 0xbd,
  0x9c, 0xe8, 0x95, 0xbd, 0xa3, 0xab, 0xa0, 0x3e, 0x02, 0x84, 0x64, 0x3e,
  0x96, 0xe1, 0x01, 0xbe, 0x7e, 0x41, 0xa7, 0x3e, 0xb3, 0x5e, 0xf2, 0xb9,
  0xcb, 0x79, 0x8a, 0xbd, 0x1e, 0xaf, 0x7e, 0x3e, 0xbe, 0xd2, 0x64, 0x3e,
  0x5a, 0x4f, 0x7c, 0xbe, 0x5d, 0xec, 0x8e, 0xbc, 0x80, 0xd3, 0xb9, 0x3b,
  0x92, 0x2f, 0x95, 0x3d, 0x1a, 0x6b, 0x7f, 0x3e, 0x89, 0x87, 0x4a, 0xbe,
  0xca, 0x42, 0x31, 0xbe, 0xc9, 0xb7, 0x89, 0x3e, 0x42, 0x73, 0xdd, 0xbc,
  0x14, 0x7d, 0x9f, 0x3e, 0xec, 0x5a, 0xf7, 0x3c, 0x18, 0xf9, 0x7b, 0xbd,
  0xdf, 0x76, 0x1e, 0xbe, 0xd8, 0x96, 0x58, 0xbe, 0x40, 0xd4, 0x6c, 0x3c,
  0x13, 0x6e, 0x1d, 0x3e, 0x74, 0x61, 0x04, 0x3e, 0x8f, 0x2d, 0x03, 0xbe,
  0xb0, 0x63, 0x47, 0x3e, 0xee, 0xa8, 0x30, 0x3e, 0x58, 0x93, 0xec, 0xbd,
  0xf2, 0xd6, 0x12, 0x3e, 0xb4, 0x62, 0x82, 0x3d, 0x9a, 0xa8, 0x53, 0x3e,
  0x41, 0x89, 0xa6, 0x3e, 0xd2, 0x74, 0x88, 0x3e, 0x36, 0xb8, 0x48, 0xbe,
  0x23, 0x1e, 0xbf, 0xbc, 0x14, 0x8f, 0x42, 0xbe, 0xd8, 0xdd, 0xa5, 0xbb,
  0x41, 0xe7, 0x1a, 0x3e, 0x1a, 0xbc, 0x71, 0xbe, 0xd0, 0x07, 0xc9, 0xbd,
  0xc5, 0xfe, 0x6a, 0x3e, 0x6d, 0x90, 0x94, 0xbe, 0x7a, 0xe0, 0xa6, 0x3d,
  0x17, 0x21, 0xaa, 0xbd, 0x5e, 0x23, 0x2a, 0x3c, 0xfc, 0x54, 0xa7, 0x3d,
  0x00, 0xe5, 0x5a, 0xbc, 0xaa, 0x1e, 0x97, 0x3e, 0x55, 0x8e, 0x02, 0x3e,
  0x0e, 0x73, 0x40, 0x3e, 0x80, 0x27, 0xca, 0xbb, 0x1a, 0x2b, 0x1f, 0xbe,
  0x80, 0x6e, 0x50, 0xbc, 0x82, 0x9c, 0x13, 0xbe, 0x2a, 0xb7, 0x93, 0x3e,
  0x9a, 0x90, 0x70, 0xbe, 0xc8, 0x67, 0x87, 0xbc, 0x33, 0xc2, 0x48, 0x3d,
  0x60, 0x69, 0x24, 0xbe, 0xdf, 0xa6, 0x87, 0xbe, 0xd8, 0xa4, 0x97, 0xbc,
  0xfa, 0xe4, 0x84, 0xbe, 0x17, 0x9c, 0x76, 0xbe, 0x9c, 0x78, 0x72, 0xbe,
  0xf5, 0xd8, 0x84, 0x3e, 0x78, 0xcc, 0x90, 0x3d, 0x69, 0x1f, 0x9e, 0x3d,
  0x49, 0x19, 0x5f, 0x3e, 0x77, 0x42, 0x0e, 0x3c, 0x8a, 0x34, 0x8a, 0x3e,
  0x76, 0x06, 0x73, 0x3e, 0x28, 0x9f, 0x1c, 0x3d, 0xc1, 0xf8, 0x86, 0xbe,
  0x8e, 0x31, 0x0b, 0x3e, 0xc1, 0xef, 0xf6, 0x3d, 0x4f, 0x1a, 0x71, 0x3e,
  0x67, 0x5d, 0x07, 0x3e, 0x28, 0xc2, 0x37, 0xbd, 0x5c, 0xef, 0x8a, 0xbe,
  0xc5, 0x0b, 0x76, 0x3e, 0x03, 0xb9, 0x93, 0xbe, 0x0c, 0x2a, 0x9e, 0x3d,
  0x16, 0xd0, 0x3a, 0x3e, 0x5c, 0x46, 0xdd, 0x3d, 0x78, 0xad, 0x38, 0x3e,
  0xe2, 0x47, 0x3d, 0x3e, 0x63, 0x8f, 0xa7, 0x3b, 0x8c, 0x53, 0x6d, 0xbe,
  0x18, 0x59, 0x3d, 0x3d, 0xe1, 0x39, 0x9b, 0x3e, 0xfe, 0x1f, 0x32, 0x3e,
  0x25, 0x07, 0x81, 0x3e, 0x12, 0x47, 0x70, 0x3e, 0x82, 0x41, 0x7e, 0x3e,
  0x60, 0xac, 0x5a, 0xbe, 0xd5, 0x78, 0x98, 0xbe, 0xaf, 0xe9, 0x39, 0xbe,
  0xe1, 0xf0, 0x6d, 0xbe, 0xce, 0xb7, 0x86, 0xbe, 0xc6, 0x88, 0x4c, 0xbe,
  0x20, 0x01, 0x4d, 0xbe, 0xde, 0xfc, 0x86, 0xbe, 0x54, 0x83, 0x96, 0xbe,
  0x22, 0x57, 0x1a, 0xbe, 0xa2, 0xfa, 0x7c, 0x3e, 0x36, 0x19, 0x7e, 0x3e,
  0x80, 0xef, 0x43, 0x3b, 0xc0, 0x26, 0xed, 0x3c, 0xac, 0xd1, 0x73, 0xbd,
  0xc0, 0x60, 0xed, 0xbc, 0xbb, 0x48, 0x80, 0xbe, 0x14, 0x11, 0x9e, 0xbd,
  0x56, 0x5e, 0x58, 0x3e, 0x35, 0x96, 0x7a, 0xbe, 0x58, 0x99, 0xb3, 0x3d,
  0x9c, 0xac, 0x4d, 0xbe, 0xc2, 0x14, 0x7d, 0x3e, 0x40, 0x61, 0xbd, 0xbc,
  0x58, 0xfe, 0x33, 0xbd, 0x20, 0xe4, 0x70, 0xbe, 0x37, 0x35, 0xa1, 0x3c,
  0x29, 0xb4, 0xf5, 0x3d, 0xf7, 0x1c, 0x17, 0xbe, 0x2a, 0x92, 0x13, 0xbe,
  0x63, 0xa0, 0x4f, 0x3e, 0xe5, 0x31, 0x07, 0x3d, 0x98, 0x94, 0x1d, 0xbe,
  0x9b, 0xc6, 0x87, 0x3e, 0x01, 0x85, 0x8a, 0x3e, 0xcc, 0xcb, 0x00, 0xbe,
  0x07, 0x95, 0xa4, 0xbc, 0x45, 0x91, 0xd4, 0xbd, 0x1e, 0xb9, 0x68, 0xbe,
  0xca, 0xb6, 0xc3, 0x3d, 0x20, 0x9d, 0x02, 0x3e, 0xf9, 0xea, 0xd1, 0x3c,
  0x14, 0x95, 0xcb, 0x3d, 0x05, 0x99, 0x99, 0x3e, 0xa8, 0x7c, 0x54, 0xbe,
  0x4e, 0x1e, 0x0e, 0x3e, 0xfc, 0xf1, 0x36, 0xbb, 0x90, 0x12, 0xa5, 0xbd,
  0x7b, 0x7b, 0x95, 0x3e, 0x73, 0x2a, 0x4f, 0x3d, 0x22, 0xf2, 0x7f, 0x3e,
  0x14, 0x19, 0xa6, 0x3e, 0x1e, 0xa2, 0x15, 0x3e, 0xe7, 0x13, 0x4c, 0xbe,
  0xcb, 0x3a, 0x85, 0xbe, 0xf9, 0x77, 0x8c, 0x3e, 0xd4, 0x0d, 0x87, 0x3e,
  0x87, 0x3c, 0x26, 0xbe, 0xd0, 0xfb, 0x8f, 0x3c, 0x40, 0xba, 0x3d, 0xbe,
  0xb0, 0x26, 0x24, 0xbd, 0x1e, 0x6e, 0xa1, 0xbe, 0x0a, 0xdd, 0x06, 0xbd,
  0x31, 0x5b, 0xb8, 0x3d, 0xe4, 0xb5, 0x65, 0xbe, 0x70, 0xe9, 0xa2, 0xbd,
  0x48, 0x4c, 0x19, 0x3e, 0x16, 0x20, 0x2e, 0x3e, 0x79, 0x54, 0x41, 0x3e,
  0x4f, 0x21, 0x67, 0xbe, 0xaa, 0xd6, 0x3f, 0xbd, 0xe0, 0x0a, 0x44, 0x3e,
  0x9b, 0x7f, 0x86, 0x3e, 0x20, 0x77, 0x02, 0xbe, 0xa4, 0x5e, 0x7d, 0x3d,
  0x7a, 0xd4, 0x05, 0xbe, 0x94, 0x08, 0x88, 0x3d, 0xc4, 0x19, 0xdb, 0x3d,
  0x92, 0x72, 0x98, 0x3d, 0x48, 0x7c, 0x9e, 0x3d, 0xdc, 0x3d, 0xae, 0x3d,
  0x4a, 0x06, 0x04, 0xbe, 0x3a, 0xe1, 0x88, 0xbe, 0xbd, 0x51, 0x8c, 0x3e,
  0x61, 0xac, 0x84, 0xbe, 0x71, 0x53, 0x19, 0xbe, 0x47, 0x2b, 0x5a, 0xbe,
  0x48, 0x29, 0x4c, 0xbe, 0xe8, 0xe6, 0xe1, 0xbc, 0x4c, 0x57, 0xd1, 0xbd,
  0x55, 0x96, 0xc2, 0xbd, 0x6f, 0x34, 0x9d, 0x3e, 0x8a, 0x20, 0x87, 0xbd,
  0x7e, 0x34, 0xe6, 0x3b, 0xb8, 0x85, 0x08, 0xbe, 0x0d, 0x34, 0x71, 0xbd,
  0xb9, 0x98, 0x0d, 0x3c, 0x68, 0xc8, 0x64, 0x3d, 0xa9, 0x54, 0x88, 0xbe,
  0xe6, 0x91, 0x8e, 0xbd, 0xbe, 0xc3, 0xc7, 0x3d, 0xa8, 0x14, 0xa3, 0x3e,
  0x16, 0x60, 0xd0, 0xbd, 0x04, 0x71, 0x01, 0x3c, 0xdc, 0xe6, 0xb4, 0x3d,
  0xd2, 0x69, 0xf5, 0xba, 0xfb, 0xc9, 0x2c, 0xbd, 0x72, 0x78, 0x7f, 0x3e,
  0xf1, 0xe9, 0x55, 0x3d, 0xc6, 0xac, 0x1b, 0xbe, 0x44, 0xd2, 0xbd, 0x3d,
  0x56, 0x9a, 0x78, 0xbe, 0xfc, 0xe5, 0xd4, 0x3d, 0xa1, 0x01, 0xd4, 0x3d,
  0x4d, 0x1d, 0x04, 0x3e, 0x0d, 0x08, 0x7e, 0x3e, 0x51, 0xcf, 0x90, 0xbe,
  0x7e, 0xa8, 0x78, 0xbc, 0xda, 0x61, 0xed, 0xbd, 0x44, 0x2a, 0xff, 0xbd,
  0xf1, 0xb6, 0x66, 0x3e, 0xf2, 0x7b, 0x98, 0x3e, 0xff, 0x26, 0x49, 0x3e,
  0x8c, 0x0c, 0x1d, 0x3e, 0x66, 0xda, 0x84, 0xbd, 0x51, 0xad, 0x8a, 0xbd,
  0x5d, 0x60, 0xbd, 0xbd, 0x84, 0xfd, 0x6f, 0x3d, 0xb5, 0x23, 0x0b, 0x3d,
  0x6a, 0xee, 0x01, 0xbe, 0x75, 0x04, 0x7c, 0xbe, 0x1a, 0x03, 0x95, 0xbe,
  0x84, 0xc4, 0x43, 0xbe, 0xcd, 0x28, 0x4a, 0x3e, 0x43, 0x05, 0x7f, 0x3e,
  0x86, 0x66, 0xc7, 0x3d, 0xd8, 0x8b, 0x13, 0x3e, 0xb0, 0xc0, 0x59, 0x3c,
  0x44, 0xec, 0x8d, 0x3d, 0x42, 0x75, 0x95, 0xbd, 0xb3, 0xb5, 0xb0, 0xbd,
  0x2d, 0xb1, 0x47, 0x3d, 0x3e, 0x57, 0x97, 0xbd, 0x64, 0x1b, 0x05, 0xbe,
  0x71, 0xc5, 0x26, 0xbe, 0x7c, 0x48, 0xb1, 0x3d, 0xa9, 0x61, 0x09, 0xbe,
  0xc4, 0xd8, 0x20, 0xbd, 0x00, 0xd3, 0xf2, 0x3c, 0x1a, 0x61, 0x8e, 0xbe,
  0x10, 0x9a, 0x46, 0x3d, 0x10, 0x1c, 0xb0, 0x3c, 0xc4, 0xbc, 0xac, 0xbb,
  0x95, 0xe6, 0x06, 0x3e, 0x64, 0x07, 0x37, 0x3e, 0xbc, 0x71, 0xa4, 0x3d,
  0xb0, 0x76, 0x47, 0xbd, 0x0d, 0x19, 0x99, 0xbe, 0xa8, 0x7e, 0x10, 0x3d,
  0x7f, 0x81, 0x86, 0x3e, 0xc6, 0xaf, 0x96, 0xbe, 0x29, 0x0f, 0x86, 0xbe,
  0x78, 0x4c, 0x4e, 0xbd, 0x34, 0x59, 0x95, 0x3d, 0xf4, 0xfa, 0x9a, 0x3d,
  0x06, 0xa2, 0x85, 0xbe, 0x05, 0x82, 0x1e, 0xbe, 0xad, 0xcc, 0x93, 0xbe,
  0x42, 0x0d, 0x86, 0xbe, 0xe5, 0x70, 0x8f, 0x3e, 0x77, 0xdc, 0x11, 0xbe,
  0xd1, 0xf8, 0x2f, 0xbe, 0x93, 0x8d, 0x84, 0x3e, 0x1e, 0x32, 0x7d, 0x3e,
  0xc6, 0x5c, 0x2b, 0xbe, 0xcc, 0x1e, 0x98, 0x3d, 0xa8, 0x5d, 0x81, 0xbe,
  0xb5, 0x71, 0x8c, 0x3e, 0xb0, 0xe8, 0x3f, 0x3e, 0x80, 0x44, 0x27, 0x3c,
  0xbe, 0x2a, 0xcb, 0xbd, 0x08, 0xba, 0x1c, 0x3d, 0xf8, 0x27, 0x7e, 0xbd,
  0x7e, 0x0e, 0x88, 0xbe, 0xc4, 0x24, 0x87, 0xbe, 0x28, 0xcd, 0x3a, 0x3d,
  0x58, 0xa5, 0x56, 0xbd, 0xca, 0xba, 0x78, 0x3e, 0x58, 0xff, 0x43, 0x3d,
  0xba, 0x57, 0x4c, 0xbe, 0xb8, 0x64, 0xe5, 0x3d, 0x38, 0x9e, 0x3a, 0x3e,
  0x8a, 0xad, 0x5a, 0xbe, 0x08, 0x2b, 0x37, 0xbd, 0x05, 0x31, 0x9a, 0x3e,
  0xd6, 0x92, 0x44, 0x3e, 0xbd, 0x5f, 0x8a, 0xbe, 0xfc, 0x31, 0x83, 0x3d,
  0x38, 0xd7, 0x73, 0xbe, 0x41, 0x46, 0x7e, 0xbe, 0xea, 0xda, 0x3f, 0xbe,
  0x9e, 0xb2, 0x57, 0x3e, 0x80, 0xf6, 0x64, 0x3c, 0x49, 0x7a, 0x95, 0xbe,
  0x60, 0x6b, 0x7c, 0x3c, 0x19, 0x87, 0x9a, 0xbe, 0x50, 0x6d, 0xc8, 0x3d,
  0xfd, 0x14, 0x7f, 0xbe, 0x60, 0x06, 0xaa, 0x3c, 0x7c, 0xd3, 0x35, 0x3e,
  0x20, 0x94, 0x25, 0xbd, 0x3c, 0x69, 0x81, 0xbe, 0x52, 0xc8, 0x12, 0x3e,
  0x1e, 0x6d, 0x0a, 0x3e, 0x78, 0xf4, 0x67, 0x3d, 0x00, 0xd1, 0x11, 0x3c,
  0xec, 0x0c, 0x8d, 0xbd, 0x60, 0xf2, 0xd8, 0x3c, 0xb6, 0xad, 0x26, 0xbe,
  0x34, 0xe0, 0x8b, 0xbe, 0x06, 0xfa, 0x76, 0xbe, 0x8b, 0xf1, 0x80, 0x3e,
  0x62, 0xc3, 0x57, 0x3e, 0x02, 0xf0, 0x1d, 0x3e, 0x00, 0xec, 0x68, 0xbb,
  0x85, 0x95, 0x9c, 0xbe, 0x20, 0x4f, 0x29, 0x3c, 0x60, 0xd7, 0x8b, 0x3d,
  0x80, 0x1a, 0xec, 0xbd, 0x78, 0x63, 0x8e, 0xbd, 0x12, 0x45, 0x09, 0xbe,
  0xe3, 0xc1, 0x1b, 0xbe, 0x09, 0x53, 0x82, 0x3e, 0x30, 0x05, 0x10, 0x3d,
  0xbe, 0xd3, 0x4f, 0xbe, 0xfa, 0x8b, 0x4f, 0x3e, 0x58, 0xfa, 0x3a, 0xbe,
  0xb8, 0x79, 0x11, 0xbe, 0x50, 0x38, 0x46, 0x3d, 0x40, 0x8c, 0xd4, 0xbb,
  0x50, 0x43, 0xdf, 0x3c, 0x50, 0xd6, 0xb2, 0x3c, 0x10, 0x34, 0x58, 0x3d,
  0x45, 0xb5, 0x8d, 0x3e, 0x0b, 0x29, 0x9c, 0x3e, 0x20, 0x54, 0x0a, 0x3e,
  0x1e, 0x46, 0x4d, 0x3e, 0x60, 0xf8, 0x8a, 0xbc, 0x70, 0x81, 0x3b, 0xbd,
  0x2e, 0x21, 0x8a, 0xbe, 0xea, 0xfa, 0xff, 0xff, 0x04, 0x00, 0x00, 0x00,
  0x04, 0x00, 0x00, 0x00, 0xfd, 0xff, 0xff, 0xff, 0xfa, 0xfa, 0xff, 0xff,
  0x04, 0x00, 0x00, 0x00, 0x04, 0x00, 0x00, 0x00, 0x20, 0x00, 0x00, 0x00,
  0x0a, 0xfb, 0xff, 0xff, 0x04, 0x00, 0x00, 0x00, 0x04, 0x00, 0x00, 0x00,
  0x00, 0x00, 0x00, 0x00, 0x1a, 0xfb, 0xff, 0xff, 0x04, 0x00, 0x00, 0x00,
  0x04, 0x00, 0x00, 0x00, 0x01, 0x00, 0x00, 0x00, 0x2a, 0xfb, 0xff, 0xff,
  0x04, 0x00, 0x00, 0x00, 0x04, 0x00, 0x00, 0x00, 0x02, 0x00, 0x00, 0x00,
  0x3a, 0xfb, 0xff, 0xff, 0x04, 0x00, 0x00, 0x00, 0x08, 0x00, 0x00, 0x00,
  0x00, 0x00, 0x00, 0x00, 0x01, 0x00, 0x00, 0x00, 0x4e, 0xfb, 0xff, 0xff,
  0x04, 0x00, 0x00, 0x00, 0x80, 0x00, 0x00, 0x00, 0x54, 0x9a, 0xc3, 0xbc,
  0x1d, 0xc4, 0xc1, 0x3c, 0x00, 0x00, 0x00, 0x00, 0x2b, 0x27, 0xcb, 0x3c,
  0x93, 0x12, 0x0c, 0x3d, 0xd2, 0xd8, 0xbb, 0xbc, 0x74, 0x31, 0x8c, 0xbc,
  0xbb, 0x59, 0x3d, 0xbc, 0xf9, 0x33, 0xef, 0x3c, 0x00, 0x00, 0x00, 0x00,
  0xf8, 0x18, 0xf9, 0x3c, 0x25, 0x99, 0xe2, 0x3c, 0x31, 0x90, 0x1f, 0x3c,
  0x18, 0xae, 0xee, 0x3c, 0x00, 0x00, 0x00, 0x00, 0xbf, 0xc8, 0x79, 0xbc,
  0x4f, 0x99, 0xac, 0x3c, 0x00, 0x00, 0x00, 0x00, 0x3c, 0x12, 0x06, 0x3c,
  0xa7, 0xef, 0xbf, 0x3c, 0x05, 0x9f, 0xc3, 0x3c, 0x00, 0x00, 0x00, 0x00,
  0x00, 0x00, 0x00, 0x00, 0x42, 0xb8, 0xd5, 0x3c, 0x67, 0x66, 0xed, 0x3c,
  0xbf, 0xf9, 0xca, 0x3c, 0x00, 0x00, 0x00, 0x00, 0xa9, 0x72, 0x0a, 0xbc,
  0x00, 0x00, 0x00, 0x00, 0x00, 0x00, 0x00, 0x00, 0xc7, 0x54, 0xdf, 0x3c,
  0xd0, 0x3f, 0xc3, 0x3c, 0xda, 0xfb, 0xff, 0xff, 0x04, 0x00, 0x00, 0x00,
  0x80, 0x00, 0x00, 0x00, 0x1b, 0xc2, 0x93, 0xbc, 0xb2, 0x24, 0xea, 0x3c,
  0xda, 0x68, 0x88, 0xbc, 0x00, 0x00, 0x00, 0x00, 0x00, 0x00, 0x00, 0x00,
  0x08, 0x06, 0xff, 0x3c, 0x8e, 0x91, 0x6e, 0xbc, 0x14, 0x17, 0xe7, 0x3c,
  0x31, 0x4d, 0xef, 0x3c, 0xd1, 0xc9, 0xc4, 0xbb, 0x00, 0x00, 0x00, 0x00,
  0xee, 0xfe, 0x8d, 0xbc, 0xbb, 0xa3, 0xf2, 0x3c, 0xba, 0x33, 0xf2, 0x3c,
  0xfa, 0x84, 0xe4, 0xbc, 0x1c, 0x32, 0x8f, 0xbc, 0x00, 0x00, 0x00, 0x00,
  0xc5, 0x29, 0x05, 0x3d, 0x00, 0x00, 0x00, 0x00, 0x9c, 0x90, 0x88, 0x3a,
  0xe4, 0xf9, 0xf0, 0x3c, 0xf6, 0x51, 0xef, 0x3c, 0xbb, 0x05, 0xf5, 0x3c,
  0x7a, 0x2c, 0xe1, 0x3c, 0x00, 0x00, 0x00, 0x00, 0x04, 0x38, 0xef, 0x3c,
  0x3f, 0xac, 0xb9, 0xbc, 0x17, 0xf4, 0xf1, 0x3c, 0xba, 0xb2, 0xe6, 0xbc,
  0x00, 0x00, 0x00, 0x00, 0x00, 0x00, 0x00, 0x00, 0x00, 0x00, 0x00, 0x00,
  0x66, 0xfc, 0xff, 0xff, 0x04, 0x00, 0x00, 0x00, 0x04, 0x00, 0x00, 0x00,
  0x04, 0x72, 0xec, 0x3c, 0xd0, 0xeb, 0xff, 0xff, 0xd4, 0xeb, 0xff, 0xff,
  0x0f, 0x00, 0x00, 0x00, 0x4d, 0x4c, 0x49, 0x52, 0x20, 0x43, 0x6f, 0x6e,
  0x76, 0x65, 0x72, 0x74, 0x65, 0x64, 0x2e, 0x00, 0x01, 0x00, 0x00, 0x00,
  0x14, 0x00, 0x00, 0x00, 0x00, 0x00, 0x0e, 0x00, 0x18, 0x00, 0x14, 0x00,
  0x10, 0x00, 0x0c, 0x00, 0x08, 0x00, 0x04, 0x00, 0x0e, 0x00, 0x00, 0x00,
  0x14, 0x00, 0x00, 0x00, 0x1c, 0x00, 0x00, 0x00, 0x60, 0x05, 0x00, 0x00,
  0x64, 0x05, 0x00, 0x00, 0x68, 0x05, 0x00, 0x00, 0x04, 0x00, 0x00, 0x00,
  0x6d, 0x61, 0x69, 0x6e, 0x00, 0x00, 0x00, 0x00, 0x19, 0x00, 0x00, 0x00,
  0x18, 0x05, 0x00, 0x00, 0xb4, 0x04, 0x00, 0x00, 0x7c, 0x04, 0x00, 0x00,
  0x34, 0x04, 0x00, 0x00, 0x00, 0x04, 0x00, 0x00, 0xcc, 0x03, 0x00, 0x00,
  0x98, 0x03, 0x00, 0x00, 0x64, 0x03, 0x00, 0x00, 0x30, 0x03, 0x00, 0x00,
  0xf0, 0x02, 0x00, 0x00, 0xc8, 0x02, 0x00, 0x00, 0x90, 0x02, 0x00, 0x00,
  0x68, 0x02, 0x00, 0x00, 0x30, 0x02, 0x00, 0x00, 0xfc, 0x01, 0x00, 0x00,
  0xc8, 0x01, 0x00, 0x00, 0x94, 0x01, 0x00, 0x00, 0x60, 0x01, 0x00, 0x00,
  0x2c, 0x01, 0x00, 0x00, 0xf8, 0x00, 0x00, 0x00, 0xc0, 0x00, 0x00, 0x00,
  0x98, 0x00, 0x00, 0x00, 0x60, 0x00, 0x00, 0x00, 0x38, 0x00, 0x00, 0x00,
  0x04, 0x00, 0x00, 0x00, 0xba, 0xfb, 0xff, 0xff, 0x14, 0x00, 0x00, 0x00,
  0x00, 0x00, 0x00, 0x0b, 0x10, 0x00, 0x00, 0x00, 0x14, 0x00, 0x00, 0x00,
  0x09, 0x00, 0x00, 0x00, 0xa8, 0xec, 0xff, 0xff, 0x01, 0x00, 0x00, 0x00,
  0x26, 0x00, 0x00, 0x00, 0x02, 0x00, 0x00, 0x00, 0x25, 0x00, 0x00, 0x00,
  0x01, 0x00, 0x00, 0x00, 0x1a, 0xfc, 0xff, 0xff, 0x0c, 0x00, 0x00, 0x00,
  0x10, 0x00, 0x00, 0x00, 0x02, 0x00, 0x00, 0x00, 0x01, 0x00, 0x00, 0x00,
  0x25, 0x00, 0x00, 0x00, 0x02, 0x00, 0x00, 0x00, 0x24, 0x00, 0x00, 0x00,
  0x1f, 0x00, 0x00, 0x00, 0x0e, 0xfc, 0xff, 0xff, 0x14, 0x00, 0x00, 0x00,
  0x00, 0x00, 0x00, 0x08, 0x10, 0x00, 0x00, 0x00, 0x14, 0x00, 0x00, 0x00,
  0x08, 0x00, 0x00, 0x00, 0xfc, 0xec, 0xff, 0xff, 0x01, 0x00, 0x00, 0x00,
  0x24, 0x00, 0x00, 0x00, 0x03, 0x00, 0x00, 0x00, 0x23, 0x00, 0x00, 0x00,
  0x0b, 0x00, 0x00, 0x00, 0xff, 0xff, 0xff, 0xff, 0x72, 0xfc, 0xff, 0xff,
  0x0c, 0x00, 0x00, 0x00, 0x10, 0x00, 0x00, 0x00, 0x02, 0x00, 0x00, 0x00,
  0x01, 0x00, 0x00, 0x00, 0x23, 0x00, 0x00, 0x00, 0x02, 0x00, 0x00, 0x00,
  0x1b, 0x00, 0x00, 0x00, 0x22, 0x00, 0x00, 0x00, 0x66, 0xfc, 0xff, 0xff,
  0x14, 0x00, 0x00, 0x00, 0x00, 0x00, 0x00, 0x3b, 0x14, 0x00, 0x00, 0x00,
  0x18, 0x00, 0x00, 0x00, 0x07, 0x00, 0x00, 0x00, 0xfa, 0xfd, 0xff, 0xff,
  0x02, 0x00, 0x00, 0x00, 0x01, 0x00, 0x00, 0x00, 0x22, 0x00, 0x00, 0x00,
  0x02, 0x00, 0x00, 0x00, 0x1e, 0x00, 0x00, 0x00, 0x21, 0x00, 0x00, 0x00,
  0x9a, 0xfc, 0xff, 0xff, 0x14, 0x00, 0x00, 0x00, 0x00, 0x00, 0x00, 0x1b,
  0x10, 0x00, 0x00, 0x00, 0x14, 0x00, 0x00, 0x00, 0x05, 0x00, 0x00, 0x00,
  0x88, 0xed, 0xff, 0xff, 0x01, 0x00, 0x00, 0x00, 0x21, 0x00, 0x00, 0x00,
  0x02, 0x00, 0x00, 0x00, 0x20, 0x00, 0x00, 0x00, 0x07, 0x00, 0x00, 0x00,
  0xca, 0xfc, 0xff, 0xff, 0x14, 0x00, 0x00, 0x00, 0x00, 0x00, 0x00, 0x17,
  0x10, 0x00, 0x00, 0x00, 0x14, 0x00, 0x00, 0x00, 0x04, 0x00, 0x00, 0x00,
  0xb8, 0xed, 0xff, 0xff, 0x01, 0x00, 0x00, 0x00, 0x20, 0x00, 0x00, 0x00,
  0x02, 0x00, 0x00, 0x00, 0x1c, 0x00, 0x00, 0x00, 0x05, 0x00, 0x00, 0x00,
  0xfa, 0xfc, 0xff, 0xff, 0x14, 0x00, 0x00, 0x00, 0x00, 0x00, 0x00, 0x0a,
  0x10, 0x00, 0x00, 0x00, 0x14, 0x00, 0x00, 0x00, 0x06, 0x00, 0x00, 0x00,
  0xe8, 0xed, 0xff, 0xff, 0x01, 0x00, 0x00, 0x00, 0x1f, 0x00, 0x00, 0x00,
  0x02, 0x00, 0x00, 0x00, 0x1d, 0x00, 0x00, 0x00, 0x06, 0x00, 0x00, 0x00,
  0x2a, 0xfd, 0xff, 0xff, 0x14, 0x00, 0x00, 0x00, 0x00, 0x00, 0x00, 0x1b,
  0x10, 0x00, 0x00, 0x00, 0x14, 0x00, 0x00, 0x00, 0x05, 0x00, 0x00, 0x00,
  0x18, 0xee, 0xff, 0xff, 0x01, 0x00, 0x00, 0x00, 0x1e, 0x00, 0x00, 0x00,
  0x02, 0x00, 0x00, 0x00, 0x1d, 0x00, 0x00, 0x00, 0x07, 0x00, 0x00, 0x00,
  0x5a, 0xfd, 0xff, 0xff, 0x14, 0x00, 0x00, 0x00, 0x00, 0x00, 0x00, 0x17,
  0x10, 0x00, 0x00, 0x00, 0x14, 0x00, 0x00, 0x00, 0x04, 0x00, 0x00, 0x00,
  0x48, 0xee, 0xff, 0xff, 0x01, 0x00, 0x00, 0x00, 0x1d, 0x00, 0x00, 0x00,
  0x02, 0x00, 0x00, 0x00, 0x1c, 0x00, 0x00, 0x00, 0x04, 0x00, 0x00, 0x00,
  0x8a, 0xfd, 0xff, 0xff, 0x14, 0x00, 0x00, 0x00, 0x00, 0x00, 0x00, 0x37,
  0x14, 0x00, 0x00, 0x00, 0x18, 0x00, 0x00, 0x00, 0x03, 0x00, 0x00, 0x00,
  0xf2, 0xfd, 0xff, 0xff, 0x00, 0x00, 0x00, 0x02, 0x01, 0x00, 0x00, 0x00,
  0x1c, 0x00, 0x00, 0x00, 0x01, 0x00, 0x00, 0x00, 0x1b, 0x00, 0x00, 0x00,
  0xba, 0xfd, 0xff, 0xff, 0x14, 0x00, 0x00, 0x00, 0x00, 0x00, 0x00, 0x0b,
  0x14, 0x00, 0x00, 0x00, 0x18, 0x00, 0x00, 0x00, 0x09, 0x00, 0x00, 0x00,
  0x22, 0xfe, 0xff, 0xff, 0x00, 0x00, 0x00, 0x01, 0x01, 0x00, 0x00, 0x00,
  0x1b, 0x00, 0x00, 0x00, 0x02, 0x00, 0x00, 0x00, 0x1a, 0x00, 0x00, 0x00,
  0x02, 0x00, 0x00, 0x00, 0x1e, 0xfe, 0xff, 0xff, 0x0c, 0x00, 0x00, 0x00,
  0x10, 0x00, 0x00, 0x00, 0x02, 0x00, 0x00, 0x00, 0x01, 0x00, 0x00, 0x00,
  0x1a, 0x00, 0x00, 0x00, 0x02, 0x00, 0x00, 0x00, 0x19, 0x00, 0x00, 0x00,
  0x14, 0x00, 0x00, 0x00, 0x12, 0xfe, 0xff, 0xff, 0x14, 0x00, 0x00, 0x00,
  0x00, 0x00, 0x00, 0x08, 0x10, 0x00, 0x00, 0x00, 0x14, 0x00, 0x00, 0x00,
  0x08, 0x00, 0x00, 0x00, 0x00, 0xef, 0xff, 0xff, 0x01, 0x00, 0x00, 0x00,
  0x19, 0x00, 0x00, 0x00, 0x03, 0x00, 0x00, 0x00, 0x18, 0x00, 0x00, 0x00,
  0x0a, 0x00, 0x00, 0x00, 0xff, 0xff, 0xff, 0xff, 0x76, 0xfe, 0xff, 0xff,
  0x0c, 0x00, 0x00, 0x00, 0x10, 0x00, 0x00, 0x00, 0x02, 0x00, 0x00, 0x00,
  0x01, 0x00, 0x00, 0x00, 0x18, 0x00, 0x00, 0x00, 0x02, 0x00, 0x00, 0x00,
  0x0f, 0x00, 0x00, 0x00, 0x17, 0x00, 0x00, 0x00, 0x6a, 0xfe, 0xff, 0xff,
  0x1c, 0x00, 0x00, 0x00, 0x00, 0x00, 0x00, 0x3b, 0x1c, 0x00, 0x00, 0x00,
  0x20, 0x00, 0x00, 0x00, 0x07, 0x00, 0x00, 0x00, 0x00, 0x00, 0x06, 0x00,
  0x08, 0x00, 0x04, 0x00, 0x06, 0x00, 0x00, 0x00, 0x02, 0x00, 0x00, 0x00,
  0x01, 0x00, 0x00, 0x00, 0x17, 0x00, 0x00, 0x00, 0x02, 0x00, 0x00, 0x00,
  0x13, 0x00, 0x00, 0x00, 0x16, 0x00, 0x00, 0x00, 0xa6, 0xfe, 0xff, 0xff,
  0x14, 0x00, 0x00, 0x00, 0x00, 0x00, 0x00, 0x1b, 0x10, 0x00, 0x00, 0x00,
  0x14, 0x00, 0x00, 0x00, 0x05, 0x00, 0x00, 0x00, 0x94, 0xef, 0xff, 0xff,
  0x01, 0x00, 0x00, 0x00, 0x16, 0x00, 0x00, 0x00, 0x02, 0x00, 0x00, 0x00,
  0x15, 0x00, 0x00, 0x00, 0x07, 0x00, 0x00, 0x00, 0xd6, 0xfe, 0xff, 0xff,
  0x14, 0x00, 0x00, 0x00, 0x00, 0x00, 0x00, 0x17, 0x10, 0x00, 0x00, 0x00,
  0x14, 0x00, 0x00, 0x00, 0x04, 0x00, 0x00, 0x00, 0xc4, 0xef, 0xff, 0xff,
  0x01, 0x00, 0x00, 0x00, 0x15, 0x00, 0x00, 0x00, 0x02, 0x00, 0x00, 0x00,
  0x11, 0x00, 0x00, 0x00, 0x05, 0x00, 0x00, 0x00, 0x06, 0xff, 0xff, 0xff,
  0x14, 0x00, 0x00, 0x00, 0x00, 0x00, 0x00, 0x0a, 0x10, 0x00, 0x00, 0x00,
  0x14, 0x00, 0x00, 0x00, 0x06, 0x00, 0x00, 0x00, 0xf4, 0xef, 0xff, 0xff,
  0x01, 0x00, 0x00, 0x00, 0x14, 0x00, 0x00, 0x00, 0x02, 0x00, 0x00, 0x00,
  0x12, 0x00, 0x00, 0x00, 0x08, 0x00, 0x00, 0x00, 0x36, 0xff, 0xff, 0xff,
  0x14, 0x00, 0x00, 0x00, 0x00, 0x00, 0x00, 0x1b, 0x10, 0x00, 0x00, 0x00,
  0x14, 0x00, 0x00, 0x00, 0x05, 0x00, 0x00, 0x00, 0x24, 0xf0, 0xff, 0xff,
  0x01, 0x00, 0x00, 0x00, 0x13, 0x00, 0x00, 0x00, 0x02, 0x00, 0x00, 0x00,
  0x12, 0x00, 0x00, 0x00, 0x07, 0x00, 0x00, 0x00, 0x66, 0xff, 0xff, 0xff,
  0x14, 0x00, 0x00, 0x00, 0x00, 0x00, 0x00, 0x17, 0x10, 0x00, 0x00, 0x00,
  0x14, 0x00, 0x00, 0x00, 0x04, 0x00, 0x00, 0x00, 0x54, 0xf0, 0xff, 0xff,
  0x01, 0x00, 0x00, 0x00, 0x12, 0x00, 0x00, 0x00, 0x02, 0x00, 0x00, 0x00,
  0x11, 0x00, 0x00, 0x00, 0x04, 0x00, 0x00, 0x00, 0x96, 0xff, 0xff, 0xff,
  0x1c, 0x00, 0x00, 0x00, 0x00, 0x00, 0x00, 0x37, 0x1c, 0x00, 0x00, 0x00,
  0x20, 0x00, 0x00, 0x00, 0x03, 0x00, 0x00, 0x00, 0x00, 0x00, 0x06, 0x00,
  0x08, 0x00, 0x07, 0x00, 0x06, 0x00, 0x00, 0x00, 0x00, 0x00, 0x00, 0x02,
  0x01, 0x00, 0x00, 0x00, 0x11, 0x00, 0x00, 0x00, 0x01, 0x00, 0x00, 0x00,
  0x10, 0x00, 0x00, 0x00, 0x00, 0x00, 0x0a, 0x00, 0x10, 0x00, 0x0c, 0x00,
  0x08, 0x00, 0x04, 0x00, 0x0a, 0x00, 0x00, 0x00, 0x0c, 0x00, 0x00, 0x00,
  0x10, 0x00, 0x00, 0x00, 0x02, 0x00, 0x00, 0x00, 0x01, 0x00, 0x00, 0x00,
  0x10, 0x00, 0x00, 0x00, 0x02, 0x00, 0x00, 0x00, 0x0f, 0x00, 0x00, 0x00,
  0x0d, 0x00, 0x00, 0x00, 0x00, 0x00, 0x0e, 0x00, 0x18, 0x00, 0x14, 0x00,
  0x10, 0x00, 0x0c, 0x00, 0x0b, 0x00, 0x04, 0x00, 0x0e, 0x00, 0x00, 0x00,
  0x20, 0x00, 0x00, 0x00, 0x00, 0x00, 0x00, 0x01, 0x2c, 0x00, 0x00, 0x00,
  0x30, 0x00, 0x00, 0x00, 0x01, 0x00, 0x00, 0x00, 0x0c, 0x00, 0x14, 0x00,
  0x13, 0x00, 0x0c, 0x00, 0x08, 0x00, 0x07, 0x00, 0x0c, 0x00, 0x00, 0x00,
  0x00, 0x00, 0x00, 0x01, 0x01, 0x00, 0x00, 0x00, 0x01, 0x00, 0x00, 0x00,
  0x00, 0x00, 0x00, 0x01, 0x01, 0x00, 0x00, 0x00, 0x0f, 0x00, 0x00, 0x00,
  0x03, 0x00, 0x00, 0x00, 0x0e, 0x00, 0x00, 0x00, 0x0c, 0x00, 0x00, 0x00,
  0x03, 0x00, 0x00, 0x00, 0x00, 0x00, 0x0e, 0x00, 0x14, 0x00, 0x00, 0x00,
  0x10, 0x00, 0x0c, 0x00, 0x0b, 0x00, 0x04, 0x00, 0x0e, 0x00, 0x00, 0x00,
  0x10, 0x00, 0x00, 0x00, 0x00, 0x00, 0x00, 0x34, 0x0c, 0x00, 0x00, 0x00,
  0x10, 0x00, 0x00, 0x00, 0x58, 0xf1, 0xff, 0xff, 0x01, 0x00, 0x00, 0x00,
  0x0e, 0x00, 0x00, 0x00, 0x02, 0x00, 0x00, 0x00, 0x00, 0x00, 0x00, 0x00,
  0x09, 0x00, 0x00, 0x00, 0x01, 0x00, 0x00, 0x00, 0x26, 0x00, 0x00, 0x00,
  0x01, 0x00, 0x00, 0x00, 0x00, 0x00, 0x00, 0x00, 0x27, 0x00, 0x00, 0x00,
  0xf0, 0x0d, 0x00, 0x00, 0xa4, 0x0d, 0x00, 0x00, 0x60, 0x0d, 0x00, 0x00,
  0x2c, 0x0d, 0x00, 0x00, 0xe0, 0x0c, 0x00, 0x00, 0x84, 0x0c, 0x00, 0x00,
  0x30, 0x0c, 0x00, 0x00, 0xe0, 0x0b, 0x00, 0x00, 0x90, 0x0b, 0x00, 0x00,
  0x40, 0x0b, 0x00, 0x00, 0xf0, 0x0a, 0x00, 0x00, 0xa0, 0x0a, 0x00, 0x00,
  0x50, 0x0a, 0x00, 0x00, 0x00, 0x0a, 0x00, 0x00, 0x90, 0x09, 0x00, 0x00,
  0xcc, 0x08, 0x00, 0x00, 0x28, 0x08, 0x00, 0x00, 0xd8, 0x07, 0x00, 0x00,
  0x5c, 0x07, 0x00, 0x00, 0x14, 0x07, 0x00, 0x00, 0xc4, 0x06, 0x00, 0x00,
  0x48, 0x06, 0x00, 0x00, 0xfc, 0x05, 0x00, 0x00, 0xac, 0x05, 0x00, 0x00,
  0x4c, 0x05, 0x00, 0x00, 0xec, 0x04, 0x00, 0x00, 0x8c, 0x04, 0x00, 0x00,
  0x18, 0x04, 0x00, 0x00, 0xc8, 0x03, 0x00, 0x00, 0x4c, 0x03, 0x00, 0x00,
  0x00, 0x03, 0x00, 0x00, 0xac, 0x02, 0x00, 0x00, 0x2c, 0x02, 0x00, 0x00,
  0xe0, 0x01, 0x00, 0x00, 0x90, 0x01, 0x00, 0x00, 0x2c, 0x01, 0x00, 0x00,
  0xc8, 0x00, 0x00, 0x00, 0x64, 0x00, 0x00, 0x00, 0x04, 0x00, 0x00, 0x00,
  0xc0, 0xf2, 0xff, 0xff, 0x14, 0x00, 0x00, 0x00, 0x20, 0x00, 0x00, 0x00,
  0x20, 0x00, 0x00, 0x00, 0x27, 0x00, 0x00, 0x00, 0x38, 0x00, 0x00, 0x00,
  0x03, 0x00, 0x00, 0x00, 0xff, 0xff, 0xff, 0xff, 0xff, 0xff, 0xff, 0xff,
  0x01, 0x00, 0x00, 0x00, 0x48, 0xf2, 0xff, 0xff, 0x19, 0x00, 0x00, 0x00,
  0x53, 0x74, 0x61, 0x74, 0x65, 0x66, 0x75, 0x6c, 0x50, 0x61, 0x72, 0x74,
  0x69, 0x74, 0x69, 0x6f, 0x6e, 0x65, 0x64, 0x43, 0x61, 0x6c, 0x6c, 0x3a,
  0x30, 0x00, 0x00, 0x00, 0x03, 0x00, 0x00, 0x00, 0x01, 0x00, 0x00, 0x00,
  0x01, 0x00, 0x00, 0x00, 0x01, 0x00, 0x00, 0x00, 0x1c, 0xf3, 0xff, 0xff,
  0x14, 0x00, 0x00, 0x00, 0x20, 0x00, 0x00, 0x00, 0x20, 0x00, 0x00, 0x00,
  0x26, 0x00, 0x00, 0x00, 0x3c, 0x00, 0x00, 0x00, 0x03, 0x00, 0x00, 0x00,
  0xff, 0xff, 0xff, 0xff, 0xff, 0xff, 0xff, 0xff, 0xff, 0xff, 0xff, 0xff,
  0xa4, 0xf2, 0xff, 0xff, 0x1c, 0x00, 0x00, 0x00, 0x73, 0x65, 0x71, 0x75,
  0x65, 0x6e, 0x74, 0x69, 0x61, 0x6c, 0x2f, 0x64, 0x65, 0x6e, 0x73, 0x65,
  0x5f, 0x31, 0x2f, 0x54, 0x65, 0x6e, 0x73, 0x6f, 0x72, 0x64, 0x6f, 0x74,
  0x00, 0x00, 0x00, 0x00, 0x03, 0x00, 0x00, 0x00, 0x01, 0x00, 0x00, 0x00,
  0x01, 0x00, 0x00, 0x00, 0x01, 0x00, 0x00, 0x00, 0x7c, 0xf3, 0xff, 0xff,
  0x14, 0x00, 0x00, 0x00, 0x1c, 0x00, 0x00, 0x00, 0x1c, 0x00, 0x00, 0x00,
  0x25, 0x00, 0x00, 0x00, 0x40, 0x00, 0x00, 0x00, 0x02, 0x00, 0x00, 0x00,
  0xff, 0xff, 0xff, 0xff, 0x01, 0x00, 0x00, 0x00, 0x00, 0xf3, 0xff, 0xff,
  0x24, 0x00, 0x00, 0x00, 0x73, 0x65, 0x71, 0x75, 0x65, 0x6e, 0x74, 0x69,
  0x61, 0x6c, 0x2f, 0x64, 0x65, 0x6e, 0x73, 0x65, 0x5f, 0x31, 0x2f, 0x54,
  0x65, 0x6e, 0x73, 0x6f, 0x72, 0x64, 0x6f, 0x74, 0x2f, 0x4d, 0x61, 0x74,
  0x4d, 0x75, 0x6c, 0x32, 0x00, 0x00, 0x00, 0x00, 0x02, 0x00, 0x00, 0x00,
  0x01, 0x00, 0x00, 0x00, 0x01, 0x00, 0x00, 0x00, 0xdc, 0xf3, 0xff, 0xff,
  0x14, 0x00, 0x00, 0x00, 0x1c, 0x00, 0x00, 0x00, 0x1c, 0x00, 0x00, 0x00,
  0x24, 0x00, 0x00, 0x00, 0x40, 0x00, 0x00, 0x00, 0x02, 0x00, 0x00, 0x00,
  0xff, 0xff, 0xff, 0xff, 0xff, 0xff, 0xff, 0xff, 0x60, 0xf3, 0xff, 0xff,
  0x24, 0x00, 0x00, 0x00, 0x73, 0x65, 0x71, 0x75, 0x65, 0x6e, 0x74, 0x69,
  0x61, 0x6c, 0x2f, 0x64, 0x65, 0x6e, 0x73, 0x65, 0x5f, 0x31, 0x2f, 0x54,
  0x65, 0x6e, 0x73, 0x6f, 0x72, 0x64, 0x6f, 0x74, 0x2f, 0x52, 0x65, 0x73,
  0x68, 0x61, 0x70, 0x65, 0x00, 0x00, 0x00, 0x00, 0x02, 0x00, 0x00, 0x00,
  0x01, 0x00, 0x00, 0x00, 0x01, 0x00, 0x00, 0x00, 0x36, 0xf5, 0xff, 0xff,
  0x14, 0x00, 0x00, 0x00, 0x14, 0x00, 0x00, 0x00, 0x23, 0x00, 0x00, 0x00,
  0x00, 0x00, 0x00, 0x02, 0x30, 0x00, 0x00, 0x00, 0xb4, 0xf3, 0xff, 0xff,
  0x22, 0x00, 0x00, 0x00, 0x73, 0x65, 0x71, 0x75, 0x65, 0x6e, 0x74, 0x69,
  0x61, 0x6c, 0x2f, 0x64, 0x65, 0x6e, 0x73, 0x65, 0x5f, 0x31, 0x2f, 0x54,
  0x65, 0x6e, 0x73, 0x6f, 0x72, 0x64, 0x6f, 0x74, 0x2f, 0x73, 0x74, 0x61,
  0x63, 0x6b, 0x00, 0x00, 0x01, 0x00, 0x00, 0x00, 0x02, 0x00, 0x00, 0x00,
  0x82, 0xf5, 0xff, 0xff, 0x14, 0x00, 0x00, 0x00, 0x14, 0x00, 0x00, 0x00,
  0x22, 0x00, 0x00, 0x00, 0x00, 0x00, 0x00, 0x02, 0x30, 0x00, 0x00, 0x00,
  0x00, 0xf4, 0xff, 0xff, 0x23, 0x00, 0x00, 0x00, 0x73, 0x65, 0x71, 0x75,
  0x65, 0x6e, 0x74, 0x69, 0x61, 0x6c, 0x2f, 0x64, 0x65, 0x6e, 0x73, 0x65,
  0x5f, 0x31, 0x2f, 0x54, 0x65, 0x6e, 0x73, 0x6f, 0x72, 0x64, 0x6f, 0x74,
  0x2f, 0x50, 0x72, 0x6f, 0x64, 0x5f, 0x31, 0x00, 0x00, 0x00, 0x00, 0x00,
  0xca, 0xf5, 0xff, 0xff, 0x14, 0x00, 0x00, 0x00, 0x14, 0x00, 0x00, 0x00,
  0x21, 0x00, 0x00, 0x00, 0x00, 0x00, 0x00, 0x02, 0x60, 0x00, 0x00, 0x00,
  0x48, 0xf4, 0xff, 0xff, 0x51, 0x00, 0x00, 0x00, 0x73, 0x65, 0x71, 0x75,
  0x65, 0x6e, 0x74, 0x69, 0x61, 0x6c, 0x2f, 0x64, 0x65, 0x6e, 0x73, 0x65,
  0x5f, 0x31, 0x2f, 0x54, 0x65, 0x6e, 0x73, 0x6f, 0x72, 0x64, 0x6f, 0x74,
  0x2f, 0x47, 0x61, 0x74, 0x68, 0x65, 0x72, 0x56, 0x32, 0x5f, 0x31, 0x3b,
  0x73, 0x65, 0x71, 0x75, 0x65, 0x6e, 0x74, 0x69, 0x61, 0x6c, 0x2f, 0x63,
  0x6f, 0x6e, 0x76, 0x31, 0x64, 0x2f, 0x43, 0x6f, 0x6e, 0x76, 0x31, 0x44,
  0x2f, 0x45, 0x78, 0x70, 0x61, 0x6e, 0x64, 0x44, 0x69, 0x6d, 0x73, 0x5f,
  0x31, 0x2f, 0x64, 0x69, 0x6d, 0x00, 0x00, 0x00, 0x01, 0x00, 0x00, 0x00,
  0x01, 0x00, 0x00, 0x00, 0x46, 0xf6, 0xff, 0xff, 0x14, 0x00, 0x00, 0x00,
  0x14, 0x00, 0x00, 0x00, 0x20, 0x00, 0x00, 0x00, 0x00, 0x00, 0x00, 0x02,
  0x34, 0x00, 0x00, 0x00, 0xc4, 0xf4, 0xff, 0xff, 0x25, 0x00, 0x00, 0x00,
  0x73, 0x65, 0x71, 0x75, 0x65, 0x6e, 0x74, 0x69, 0x61, 0x6c, 0x2f, 0x64,
  0x65, 0x6e, 0x73, 0x65, 0x5f, 0x31, 0x2f, 0x54, 0x65, 0x6e, 0x73, 0x6f,
  0x72, 0x64, 0x6f, 0x74, 0x2f, 0x63, 0x6f, 0x6e, 0x63, 0x61, 0x74, 0x5f,
  0x31, 0x00, 0x00, 0x00, 0x01, 0x00, 0x00, 0x00, 0x03, 0x00, 0x00, 0x00,
  0x96, 0xf6, 0xff, 0xff, 0x14, 0x00, 0x00, 0x00, 0x14, 0x00, 0x00, 0x00,
  0x1f, 0x00, 0x00, 0x00, 0x00, 0x00, 0x00, 0x02, 0x30, 0x00, 0x00, 0x00,
  0x14, 0xf5, 0xff, 0xff, 0x21, 0x00, 0x00, 0x00, 0x73, 0x65, 0x71, 0x75,
  0x65, 0x6e, 0x74, 0x69, 0x61, 0x6c, 0x2f, 0x64, 0x65, 0x6e, 0x73, 0x65,
  0x5f, 0x31, 0x2f, 0x54, 0x65, 0x6e, 0x73, 0x6f, 0x72, 0x64, 0x6f, 0x74,
  0x2f, 0x50, 0x72, 0x6f, 0x64, 0x00, 0x00, 0x00, 0x00, 0x00, 0x00, 0x00,
  0xde, 0xf6, 0xff, 0xff, 0x14, 0x00, 0x00, 0x00, 0x14, 0x00, 0x00, 0x00,
  0x1e, 0x00, 0x00, 0x00, 0x00, 0x00, 0x00, 0x02, 0x5c, 0x00, 0x00, 0x00,
  0x5c, 0xf5, 0xff, 0xff, 0x4f, 0x00, 0x00, 0x00, 0x73, 0x65, 0x71, 0x75,
  0x65, 0x6e, 0x74, 0x69, 0x61, 0x6c, 0x2f, 0x64, 0x65, 0x6e, 0x73, 0x65,
  0x5f, 0x31, 0x2f, 0x54, 0x65, 0x6e, 0x73, 0x6f, 0x72, 0x64, 0x6f, 0x74,
  0x2f, 0x47, 0x61, 0x74, 0x68, 0x65, 0x72, 0x56, 0x32, 0x3b, 0x73, 0x65,
  0x71, 0x75, 0x65, 0x6e, 0x74, 0x69, 0x61, 0x6c, 0x2f, 0x63, 0x6f, 0x6e,
  0x76, 0x31, 0x64, 0x2f, 0x43, 0x6f, 0x6e, 0x76, 0x31, 0x44, 0x2f, 0x45,
  0x78, 0x70, 0x61, 0x6e, 0x64, 0x44, 0x69, 0x6d, 0x73, 0x5f, 0x31, 0x2f,
  0x64, 0x69, 0x6d, 0x00, 0x01, 0x00, 0x00, 0x00, 0x02, 0x00, 0x00, 0x00,
  0x56, 0xf7, 0xff, 0xff, 0x14, 0x00, 0x00, 0x00, 0x14, 0x00, 0x00, 0x00,
  0x1d, 0x00, 0x00, 0x00, 0x00, 0x00, 0x00, 0x02, 0x30, 0x00, 0x00, 0x00,
  0xd4, 0xf5, 0xff, 0xff, 0x22, 0x00, 0x00, 0x00, 0x73, 0x65, 0x71, 0x75,
  0x65, 0x6e, 0x74, 0x69, 0x61, 0x6c, 0x2f, 0x64, 0x65, 0x6e, 0x73, 0x65,
  0x5f, 0x31, 0x2f, 0x54, 0x65, 0x6e, 0x73, 0x6f, 0x72, 0x64, 0x6f, 0x74,
  0x2f, 0x53, 0x68, 0x61, 0x70, 0x65, 0x00, 0x00, 0x01, 0x00, 0x00, 0x00,
  0x03, 0x00, 0x00, 0x00, 0xa8, 0xf6, 0xff, 0xff, 0x14, 0x00, 0x00, 0x00,
  0x20, 0x00, 0x00, 0x00, 0x20, 0x00, 0x00, 0x00, 0x1c, 0x00, 0x00, 0x00,
  0x4c, 0x00, 0x00, 0x00, 0x03, 0x00, 0x00, 0x00, 0xff, 0xff, 0xff, 0xff,
  0xff, 0xff, 0xff, 0xff, 0x20, 0x00, 0x00, 0x00, 0x30, 0xf6, 0xff, 0xff,
  0x2e, 0x00, 0x00, 0x00, 0x73, 0x65, 0x71, 0x75, 0x65, 0x6e, 0x74, 0x69,
  0x61, 0x6c, 0x2f, 0x64, 0x65, 0x6e, 0x73, 0x65, 0x2f, 0x52, 0x65, 0x6c,
  0x75, 0x3b, 0x73, 0x65, 0x71, 0x75, 0x65, 0x6e, 0x74, 0x69, 0x61, 0x6c,
  0x2f, 0x64, 0x65, 0x6e, 0x73, 0x65, 0x2f, 0x42, 0x69, 0x61, 0x73, 0x41,
  0x64, 0x64, 0x00, 0x00, 0x03, 0x00, 0x00, 0x00, 0x01, 0x00, 0x00, 0x00,
  0x01, 0x00, 0x00, 0x00, 0x20, 0x00, 0x00, 0x00, 0x18, 0xf7, 0xff, 0xff,
  0x14, 0x00, 0x00, 0x00, 0x20, 0x00, 0x00, 0x00, 0x20, 0x00, 0x00, 0x00,
  0x1b, 0x00, 0x00, 0x00, 0x38, 0x00, 0x00, 0x00, 0x03, 0x00, 0x00, 0x00,
  0xff, 0xff, 0xff, 0xff, 0xff, 0xff, 0xff, 0xff, 0xff, 0xff, 0xff, 0xff,
  0xa0, 0xf6, 0xff, 0xff, 0x1a, 0x00, 0x00, 0x00, 0x73, 0x65, 0x71, 0x75,
  0x65, 0x6e, 0x74, 0x69, 0x61, 0x6c, 0x2f, 0x64, 0x65, 0x6e, 0x73, 0x65,
  0x2f, 0x54, 0x65, 0x6e, 0x73, 0x6f, 0x72, 0x64, 0x6f, 0x74, 0x00, 0x00,
  0x03, 0x00, 0x00, 0x00, 0x01, 0x00, 0x00, 0x00, 0x01, 0x00, 0x00, 0x00,
  0x01, 0x00, 0x00, 0x00, 0x74, 0xf7, 0xff, 0xff, 0x14, 0x00, 0x00, 0x00,
  0x1c, 0x00, 0x00, 0x00, 0x1c, 0x00, 0x00, 0x00, 0x1a, 0x00, 0x00, 0x00,
  0x3c, 0x00, 0x00, 0x00, 0x02, 0x00, 0x00, 0x00, 0xff, 0xff, 0xff, 0xff,
  0x20, 0x00, 0x00, 0x00, 0xf8, 0xf6, 0xff, 0xff, 0x22, 0x00, 0x00, 0x00,
  0x73, 0x65, 0x71, 0x75, 0x65, 0x6e, 0x74, 0x69, 0x61, 0x6c, 0x2f, 0x64,
  0x65, 0x6e, 0x73, 0x65, 0x2f, 0x54, 0x65, 0x6e, 0x73, 0x6f, 0x72, 0x64,
  0x6f, 0x74, 0x2f, 0x4d, 0x61, 0x74, 0x4d, 0x75, 0x6c, 0x31, 0x00, 0x00,
  0x02, 0x00, 0x00, 0x00, 0x01, 0x00, 0x00, 0x00, 0x20, 0x00, 0x00, 0x00,
  0xd0, 0xf7, 0xff, 0xff, 0x14, 0x00, 0x00, 0x00, 0x1c, 0x00, 0x00, 0x00,
  0x1c, 0x00, 0x00, 0x00, 0x19, 0x00, 0x00, 0x00, 0x3c, 0x00, 0x00, 0x00,
  0x02, 0x00, 0x00, 0x00, 0xff, 0xff, 0xff, 0xff, 0xff, 0xff, 0xff, 0xff,
  0x54, 0xf7, 0xff, 0xff, 0x22, 0x00, 0x00, 0x00, 0x73, 0x65, 0x71, 0x75,
  0x65, 0x6e, 0x74, 0x69, 0x61, 0x6c, 0x2f, 0x64, 0x65, 0x6e, 0x73, 0x65,
  0x2f, 0x54, 0x65, 0x6e, 0x73, 0x6f, 0x72, 0x64, 0x6f, 0x74, 0x2f, 0x52,
  0x65, 0x73, 0x68, 0x61, 0x70, 0x65, 0x00, 0x00, 0x02, 0x00, 0x00, 0x00,
  0x01, 0x00, 0x00, 0x00, 0x01, 0x00, 0x00, 0x00, 0x26, 0xf9, 0xff, 0xff,
  0x14, 0x00, 0x00, 0x00, 0x14, 0x00, 0x00, 0x00, 0x18, 0x00, 0x00, 0x00,
  0x00, 0x00, 0x00, 0x02, 0x30, 0x00, 0x00, 0x00, 0xa4, 0xf7, 0xff, 0xff,
  0x20, 0x00, 0x00, 0x00, 0x73, 0x65, 0x71, 0x75, 0x65, 0x6e, 0x74, 0x69,
  0x61, 0x6c, 0x2f, 0x64, 0x65, 0x6e, 0x73, 0x65, 0x2f, 0x54, 0x65, 0x6e,
  0x73, 0x6f, 0x72, 0x64, 0x6f, 0x74, 0x2f, 0x73, 0x74, 0x61, 0x63, 0x6b,
  0x00, 0x00, 0x00, 0x00, 0x01, 0x00, 0x00, 0x00, 0x02, 0x00, 0x00, 0x00,
  0x72, 0xf9, 0xff, 0xff, 0x14, 0x00, 0x00, 0x00, 0x14, 0x00, 0x00, 0x00,
  0x17, 0x00, 0x00, 0x00, 0x00, 0x00, 0x00, 0x02, 0x30, 0x00, 0x00, 0x00,
  0xf0, 0xf7, 0xff, 0xff, 0x21, 0x00, 0x00, 0x00, 0x73, 0x65, 0x71, 0x75,
  0x65, 0x6e, 0x74, 0x69, 0x61, 0x6c, 0x2f, 0x64, 0x65, 0x6e, 0x73, 0x65,
  0x2f, 0x54, 0x65, 0x6e, 0x73, 0x6f, 0x72, 0x64, 0x6f, 0x74, 0x2f, 0x50,
  0x72, 0x6f, 0x64, 0x5f, 0x31, 0x00, 0x00, 0x00, 0x00, 0x00, 0x00, 0x00,
  0xba, 0xf9, 0xff, 0xff, 0x14, 0x00, 0x00, 0x00, 0x14, 0x00, 0x00, 0x00,
  0x16, 0x00, 0x00, 0x00, 0x00, 0x00, 0x00, 0x02, 0x5c, 0x00, 0x00, 0x00,
  0x38, 0xf8, 0xff, 0xff, 0x4f, 0x00, 0x00, 0x00, 0x73, 0x65, 0x71, 0x75,
  0x65, 0x6e, 0x74, 0x69, 0x61, 0x6c, 0x2f, 0x64, 0x65, 0x6e, 0x73, 0x65,
  0x2f, 0x54, 0x65, 0x6e, 0x73, 0x6f, 0x72, 0x64, 0x6f, 0x74, 0x2f, 0x47,
  0x61, 0x74, 0x68, 0x65, 0x72, 0x56, 0x32, 0x5f, 0x31, 0x3b, 0x73, 0x65,
  0x71, 0x75, 0x65, 0x6e, 0x74, 0x69, 0x61, 0x6c, 0x2f, 0x63, 0x6f, 0x6e,
  0x76, 0x31, 0x64, 0x2f, 0x43, 0x6f, 0x6e, 0x76, 0x31, 0x44, 0x2f, 0x45,
  0x78, 0x70, 0x61, 0x6e, 0x64, 0x44, 0x69, 0x6d, 0x73, 0x5f, 0x31, 0x2f,
  0x64, 0x69, 0x6d, 0x00, 0x01, 0x00, 0x00, 0x00, 0x01, 0x00, 0x00, 0x00,
  0x32, 0xfa, 0xff, 0xff, 0x14, 0x00, 0x00, 0x00, 0x14, 0x00, 0x00, 0x00,
  0x15, 0x00, 0x00, 0x00, 0x00, 0x00, 0x00, 0x02, 0x30, 0x00, 0x00, 0x00,
  0xb0, 0xf8, 0xff, 0xff, 0x23, 0x00, 0x00, 0x00, 0x73, 0x65, 0x71, 0x75,
  0x65, 0x6e, 0x74, 0x69, 0x61, 0x6c, 0x2f, 0x64, 0x65, 0x6e, 0x73, 0x65,
  0x2f, 0x54, 0x65, 0x6e, 0x73, 0x6f, 0x72, 0x64, 0x6f, 0x74, 0x2f, 0x63,
  0x6f, 0x6e, 0x63, 0x61, 0x74, 0x5f, 0x31, 0x00, 0x01, 0x00, 0x00, 0x00,
  0x03, 0x00, 0x00, 0x00, 0x7e, 0xfa, 0xff, 0xff, 0x14, 0x00, 0x00, 0x00,
  0x14, 0x00, 0x00, 0x00, 0x14, 0x00, 0x00, 0x00, 0x00, 0x00, 0x00, 0x02,
  0x2c, 0x00, 0x00, 0x00, 0xfc, 0xf8, 0xff, 0xff, 0x1f, 0x00, 0x00, 0x00,
  0x73, 0x65, 0x71, 0x75, 0x65, 0x6e, 0x74, 0x69, 0x61, 0x6c, 0x2f, 0x64,
  0x65, 0x6e, 0x73, 0x65, 0x2f, 0x54, 0x65, 0x6e, 0x73, 0x6f, 0x72, 0x64,
  0x6f, 0x74, 0x2f, 0x50, 0x72, 0x6f, 0x64, 0x00, 0x00, 0x00, 0x00, 0x00,
  0xc2, 0xfa, 0xff, 0xff, 0x14, 0x00, 0x00, 0x00, 0x14, 0x00, 0x00, 0x00,
  0x13, 0x00, 0x00, 0x00, 0x00, 0x00, 0x00, 0x02, 0x5c, 0x00, 0x00, 0x00,
  0x40, 0xf9, 0xff, 0xff, 0x4d, 0x00, 0x00, 0x00, 0x73, 0x65, 0x71, 0x75,
  0x65, 0x6e, 0x74, 0x69, 0x61, 0x6c, 0x2f, 0x64, 0x65, 0x6e, 0x73, 0x65,
  0x2f, 0x54, 0x65, 0x6e, 0x73, 0x6f, 0x72, 0x64, 0x6f, 0x74, 0x2f, 0x47,
  0x61, 0x74, 0x68, 0x65, 0x72, 0x56, 0x32, 0x3b, 0x73, 0x65, 0x71, 0x75,
  0x65, 0x6e, 0x74, 0x69, 0x61, 0x6c, 0x2f, 0x63, 0x6f, 0x6e, 0x76, 0x31,
  0x64, 0x2f, 0x43, 0x6f, 0x6e, 0x76, 0x31, 0x44, 0x2f, 0x45, 0x78, 0x70,
  0x61, 0x6e, 0x64, 0x44, 0x69, 0x6d, 0x73, 0x5f, 0x31, 0x2f, 0x64, 0x69,
  0x6d, 0x00, 0x00, 0x00, 0x01, 0x00, 0x00, 0x00, 0x02, 0x00, 0x00, 0x00,
  0x3a, 0xfb, 0xff, 0xff, 0x14, 0x00, 0x00, 0x00, 0x14, 0x00, 0x00, 0x00,
  0x12, 0x00, 0x00, 0x00, 0x00, 0x00, 0x00, 0x02, 0x30, 0x00, 0x00, 0x00,
  0xb8, 0xf9, 0xff, 0xff, 0x20, 0x00, 0x00, 0x00, 0x73, 0x65, 0x71, 0x75,
  0x65, 0x6e, 0x74, 0x69, 0x61, 0x6c, 0x2f, 0x64, 0x65, 0x6e, 0x73, 0x65,
  0x2f, 0x54, 0x65, 0x6e, 0x73, 0x6f, 0x72, 0x64, 0x6f, 0x74, 0x2f, 0x53,
  0x68, 0x61, 0x70, 0x65, 0x00, 0x00, 0x00, 0x00, 0x01, 0x00, 0x00, 0x00,
  0x03, 0x00, 0x00, 0x00, 0x8c, 0xfa, 0xff, 0xff, 0x14, 0x00, 0x00, 0x00,
  0x20, 0x00, 0x00, 0x00, 0x20, 0x00, 0x00, 0x00, 0x11, 0x00, 0x00, 0x00,
  0x7c, 0x00, 0x00, 0x00, 0x03, 0x00, 0x00, 0x00, 0xff, 0xff, 0xff, 0xff,
  0x01, 0x00, 0x00, 0x00, 0x20, 0x00, 0x00, 0x00, 0x14, 0xfa, 0xff, 0xff,
  0x5d, 0x00, 0x00, 0x00, 0x73, 0x65, 0x71, 0x75, 0x65, 0x6e, 0x74, 0x69,
  0x61, 0x6c, 0x2f, 0x63, 0x6f, 0x6e, 0x76, 0x31, 0x64, 0x2f, 0x52, 0x65,
  0x6c, 0x75, 0x3b, 0x73, 0x65, 0x71, 0x75, 0x65, 0x6e, 0x74, 0x69, 0x61,
  0x6c, 0x2f, 0x63, 0x6f, 0x6e, 0x76, 0x31, 0x64, 0x2f, 0x42, 0x69, 0x61,
  0x73, 0x41, 0x64, 0x64, 0x3b, 0x73, 0x65, 0x71, 0x75, 0x65, 0x6e, 0x74,
  0x69, 0x61, 0x6c, 0x2f, 0x63, 0x6f, 0x6e, 0x76, 0x31, 0x64, 0x2f, 0x43,
  0x6f, 0x6e, 0x76, 0x31, 0x44, 0x2f, 0x53, 0x71, 0x75, 0x65, 0x65, 0x7a,
  0x65, 0x3b, 0x63, 0x6f, 0x6e, 0x76, 0x31, 0x64, 0x2f, 0x62, 0x69, 0x61,
  0x73, 0x00, 0x00, 0x00, 0x03, 0x00, 0x00, 0x00, 0x01, 0x00, 0x00, 0x00,
  0x01, 0x00, 0x00, 0x00, 0x20, 0x00, 0x00, 0x00, 0x2c, 0xfb, 0xff, 0xff,
  0x14, 0x00, 0x00, 0x00, 0x24, 0x00, 0x00, 0x00, 0x24, 0x00, 0x00, 0x00,
  0x10, 0x00, 0x00, 0x00, 0x98, 0x00, 0x00, 0x00, 0x04, 0x00, 0x00, 0x00,
  0xff, 0xff, 0xff, 0xff, 0x01, 0x00, 0x00, 0x00, 0x01, 0x00, 0x00, 0x00,
  0x20, 0x00, 0x00, 0x00, 0xb8, 0xfa, 0xff, 0xff, 0x76, 0x00, 0x00, 0x00,
  0x73, 0x65, 0x71, 0x75, 0x65, 0x6e, 0x74, 0x69, 0x61, 0x6c, 0x2f, 0x63,
  0x6f, 0x6e, 0x76, 0x31, 0x64, 0x2f, 0x52, 0x65, 0x6c, 0x75, 0x3b, 0x73,
  0x65, 0x71, 0x75, 0x65, 0x6e, 0x74, 0x69, 0x61, 0x6c, 0x2f, 0x63, 0x6f,
  0x6e, 0x76, 0x31, 0x64, 0x2f, 0x42, 0x69, 0x61, 0x73, 0x41, 0x64, 0x64,
  0x3b, 0x73, 0x65, 0x71, 0x75, 0x65, 0x6e, 0x74, 0x69, 0x61, 0x6c, 0x2f,
  0x63, 0x6f, 0x6e, 0x76, 0x31, 0x64, 0x2f, 0x43, 0x6f, 0x6e, 0x76, 0x31,
  0x44, 0x2f, 0x53, 0x71, 0x75, 0x65, 0x65, 0x7a, 0x65, 0x3b, 0x63, 0x6f,
  0x6e, 0x76, 0x31, 0x64, 0x2f, 0x62, 0x69, 0x61, 0x73, 0x3b, 0x73, 0x65,
  0x71, 0x75, 0x65, 0x6e, 0x74, 0x69, 0x61, 0x6c, 0x2f, 0x63, 0x6f, 0x6e,
  0x76, 0x31, 0x64, 0x2f, 0x43, 0x6f, 0x6e, 0x76, 0x31, 0x44, 0x00, 0x00,
  0x04, 0x00, 0x00, 0x00, 0x01, 0x00, 0x00, 0x00, 0x01, 0x00, 0x00, 0x00,
  0x01, 0x00, 0x00, 0x00, 0x20, 0x00, 0x00, 0x00, 0xec, 0xfb, 0xff, 0xff,
  0x14, 0x00, 0x00, 0x00, 0x24, 0x00, 0x00, 0x00, 0x24, 0x00, 0x00, 0x00,
  0x0f, 0x00, 0x00, 0x00, 0x44, 0x00, 0x00, 0x00, 0x04, 0x00, 0x00, 0x00,
  0xff, 0xff, 0xff, 0xff, 0x01, 0x00, 0x00, 0x00, 0x09, 0x00, 0x00, 0x00,
  0x03, 0x00, 0x00, 0x00, 0x78, 0xfb, 0xff, 0xff, 0x23, 0x00, 0x00, 0x00,
  0x73, 0x65, 0x71, 0x75, 0x65, 0x6e, 0x74, 0x69, 0x61, 0x6c, 0x2f, 0x63,
  0x6f, 0x6e, 0x76, 0x31, 0x64, 0x2f, 0x43, 0x6f, 0x6e, 0x76, 0x31, 0x44,
  0x2f, 0x45, 0x78, 0x70, 0x61, 0x6e, 0x64, 0x44, 0x69, 0x6d, 0x73, 0x00,
  0x04, 0x00, 0x00, 0x00, 0x01, 0x00, 0x00, 0x00, 0x01, 0x00, 0x00, 0x00,
  0x09, 0x00, 0x00, 0x00, 0x03, 0x00, 0x00, 0x00, 0x52, 0xfd, 0xff, 0xff,
  0x14, 0x00, 0x00, 0x00, 0x14, 0x00, 0x00, 0x00, 0x0e, 0x00, 0x00, 0x00,
  0x00, 0x00, 0x00, 0x02, 0x30, 0x00, 0x00, 0x00, 0xd0, 0xfb, 0xff, 0xff,
  0x20, 0x00, 0x00, 0x00, 0x73, 0x65, 0x71, 0x75, 0x65, 0x6e, 0x74, 0x69,
  0x61, 0x6c, 0x2f, 0x63, 0x6f, 0x6e, 0x76, 0x31, 0x64, 0x2f, 0x43, 0x6f,
  0x6e, 0x76, 0x31, 0x44, 0x2f, 0x53, 0x71, 0x75, 0x65, 0x65, 0x7a, 0x65,
  0x00, 0x00, 0x00, 0x00, 0x01, 0x00, 0x00, 0x00, 0x03, 0x00, 0x00, 0x00,
  0xe6, 0xfc, 0xff, 0xff, 0x10, 0x00, 0x00, 0x00, 0x10, 0x00, 0x00, 0x00,
  0x0d, 0x00, 0x00, 0x00, 0x28, 0x00, 0x00, 0x00, 0x18, 0xfc, 0xff, 0xff,
  0x18, 0x00, 0x00, 0x00, 0x73, 0x65, 0x71, 0x75, 0x65, 0x6e, 0x74, 0x69,
  0x61, 0x6c, 0x2f, 0x63, 0x6f, 0x6e, 0x76, 0x31, 0x64, 0x2f, 0x43, 0x6f,
  0x6e, 0x76, 0x31, 0x44, 0x00, 0x00, 0x00, 0x00, 0x04, 0x00, 0x00, 0x00,
  0x20, 0x00, 0x00, 0x00, 0x01, 0x00, 0x00, 0x00, 0x09, 0x00, 0x00, 0x00,
  0x03, 0x00, 0x00, 0x00, 0x32, 0xfd, 0xff, 0xff, 0x10, 0x00, 0x00, 0x00,
  0x10, 0x00, 0x00, 0x00, 0x0c, 0x00, 0x00, 0x00, 0x30, 0x00, 0x00, 0x00,
  0x64, 0xfc, 0xff, 0xff, 0x23, 0x00, 0x00, 0x00, 0x73, 0x65, 0x71, 0x75,
  0x65, 0x6e, 0x74, 0x69, 0x61, 0x6c, 0x2f, 0x64, 0x65, 0x6e, 0x73, 0x65,
  0x5f, 0x31, 0x2f, 0x54, 0x65, 0x6e, 0x73, 0x6f, 0x72, 0x64, 0x6f, 0x74,
  0x2f, 0x4d, 0x61, 0x74, 0x4d, 0x75, 0x6c, 0x00, 0x02, 0x00, 0x00, 0x00,
  0x01, 0x00, 0x00, 0x00, 0x20, 0x00, 0x00, 0x00, 0x7e, 0xfd, 0xff, 0xff,
  0x10, 0x00, 0x00, 0x00, 0x10, 0x00, 0x00, 0x00, 0x0b, 0x00, 0x00, 0x00,
  0x30, 0x00, 0x00, 0x00, 0xb0, 0xfc, 0xff, 0xff, 0x21, 0x00, 0x00, 0x00,
  0x73, 0x65, 0x71, 0x75, 0x65, 0x6e, 0x74, 0x69, 0x61, 0x6c, 0x2f, 0x64,
  0x65, 0x6e, 0x73, 0x65, 0x2f, 0x54, 0x65, 0x6e, 0x73, 0x6f, 0x72, 0x64,
  0x6f, 0x74, 0x2f, 0x4d, 0x61, 0x74, 0x4d, 0x75, 0x6c, 0x00, 0x00, 0x00,
  0x02, 0x00, 0x00, 0x00, 0x20, 0x00, 0x00, 0x00, 0x20, 0x00, 0x00, 0x00,
  0x82, 0xfe, 0xff, 0xff, 0x14, 0x00, 0x00, 0x00, 0x14, 0x00, 0x00, 0x00,
  0x0a, 0x00, 0x00, 0x00, 0x00, 0x00, 0x00, 0x02, 0x34, 0x00, 0x00, 0x00,
  0x00, 0xfd, 0xff, 0xff, 0x27, 0x00, 0x00, 0x00, 0x73, 0x65, 0x71, 0x75,
  0x65, 0x6e, 0x74, 0x69, 0x61, 0x6c, 0x2f, 0x63, 0x6f, 0x6e, 0x76, 0x31,
  0x64, 0x2f, 0x43, 0x6f, 0x6e, 0x76, 0x31, 0x44, 0x2f, 0x45, 0x78, 0x70,
  0x61, 0x6e, 0x64, 0x44, 0x69, 0x6d, 0x73, 0x2f, 0x64, 0x69, 0x6d, 0x00,
  0x00, 0x00, 0x00, 0x00, 0xce, 0xfe, 0xff, 0xff, 0x14, 0x00, 0x00, 0x00,
  0x14, 0x00, 0x00, 0x00, 0x09, 0x00, 0x00, 0x00, 0x00, 0x00, 0x00, 0x02,
  0x30, 0x00, 0x00, 0x00, 0x4c, 0xfd, 0xff, 0xff, 0x22, 0x00, 0x00, 0x00,
  0x73, 0x65, 0x71, 0x75, 0x65, 0x6e, 0x74, 0x69, 0x61, 0x6c, 0x2f, 0x64,
  0x65, 0x6e, 0x73, 0x65, 0x2f, 0x54, 0x65, 0x6e, 0x73, 0x6f, 0x72, 0x64,
  0x6f, 0x74, 0x2f, 0x43, 0x6f, 0x6e, 0x73, 0x74, 0x5f, 0x32, 0x00, 0x00,
  0x01, 0x00, 0x00, 0x00, 0x01, 0x00, 0x00, 0x00, 0x1a, 0xff, 0xff, 0xff,
  0x14, 0x00, 0x00, 0x00, 0x14, 0x00, 0x00, 0x00, 0x08, 0x00, 0x00, 0x00,
  0x00, 0x00, 0x00, 0x02, 0x30, 0x00, 0x00, 0x00, 0x98, 0xfd, 0xff, 0xff,
  0x20, 0x00, 0x00, 0x00, 0x73, 0x65, 0x71, 0x75, 0x65, 0x6e, 0x74, 0x69,
  0x61, 0x6c, 0x2f, 0x64, 0x65, 0x6e, 0x73, 0x65, 0x2f, 0x54, 0x65, 0x6e,
  0x73, 0x6f, 0x72, 0x64, 0x6f, 0x74, 0x2f, 0x43, 0x6f, 0x6e, 0x73, 0x74,
  0x00, 0x00, 0x00, 0x00, 0x01, 0x00, 0x00, 0x00, 0x01, 0x00, 0x00, 0x00,
  0x66, 0xff, 0xff, 0xff, 0x14, 0x00, 0x00, 0x00, 0x14, 0x00, 0x00, 0x00,
  0x07, 0x00, 0x00, 0x00, 0x00, 0x00, 0x00, 0x02, 0x34, 0x00, 0x00, 0x00,
  0xe4, 0xfd, 0xff, 0xff, 0x24, 0x00, 0x00, 0x00, 0x73, 0x65, 0x71, 0x75,
  0x65, 0x6e, 0x74, 0x69, 0x61, 0x6c, 0x2f, 0x64, 0x65, 0x6e, 0x73, 0x65,
  0x5f, 0x31, 0x2f, 0x54, 0x65, 0x6e, 0x73, 0x6f, 0x72, 0x64, 0x6f, 0x74,
  0x2f, 0x43, 0x6f, 0x6e, 0x73, 0x74, 0x5f, 0x32, 0x00, 0x00, 0x00, 0x00,
  0x01, 0x00, 0x00, 0x00, 0x01, 0x00, 0x00, 0x00, 0xb6, 0xff, 0xff, 0xff,
  0x14, 0x00, 0x00, 0x00, 0x14, 0x00, 0x00, 0x00, 0x06, 0x00, 0x00, 0x00,
  0x00, 0x00, 0x00, 0x02, 0x2c, 0x00, 0x00, 0x00, 0x34, 0xfe, 0xff, 0xff,
  0x1f, 0x00, 0x00, 0x00, 0x73, 0x65, 0x71, 0x75, 0x65, 0x6e, 0x74, 0x69,
  0x61, 0x6c, 0x2f, 0x64, 0x65, 0x6e, 0x73, 0x65, 0x2f, 0x54, 0x65, 0x6e,
  0x73, 0x6f, 0x72, 0x64, 0x6f, 0x74, 0x2f, 0x61, 0x78, 0x65, 0x73, 0x00,
  0x01, 0x00, 0x00, 0x00, 0x01, 0x00, 0x00, 0x00, 0x00, 0x00, 0x0e, 0x00,
  0x18, 0x00, 0x14, 0x00, 0x13, 0x00, 0x0c, 0x00, 0x08, 0x00, 0x04, 0x00,
  0x0e, 0x00, 0x00, 0x00, 0x14, 0x00, 0x00, 0x00, 0x14, 0x00, 0x00, 0x00,
  0x05, 0x00, 0x00, 0x00, 0x00, 0x00, 0x00, 0x02, 0x2c, 0x00, 0x00, 0x00,
  0x8c, 0xfe, 0xff, 0xff, 0x1f, 0x00, 0x00, 0x00, 0x73, 0x65, 0x71, 0x75,
  0x65, 0x6e, 0x74, 0x69, 0x61, 0x6c, 0x2f, 0x64, 0x65, 0x6e, 0x73, 0x65,
  0x2f, 0x54, 0x65, 0x6e, 0x73, 0x6f, 0x72, 0x64, 0x6f, 0x74, 0x2f, 0x66,
  0x72, 0x65, 0x65, 0x00, 0x01, 0x00, 0x00, 0x00, 0x02, 0x00, 0x00, 0x00,
  0x9e, 0xff, 0xff, 0xff, 0x10, 0x00, 0x00, 0x00, 0x10, 0x00, 0x00, 0x00,
  0x04, 0x00, 0x00, 0x00, 0x18, 0x00, 0x00, 0x00, 0xd0, 0xfe, 0xff, 0xff,
  0x0b, 0x00, 0x00, 0x00, 0x63, 0x6f, 0x6e, 0x76, 0x31, 0x64, 0x2f, 0x62,
  0x69, 0x61, 0x73, 0x00, 0x01, 0x00, 0x00, 0x00, 0x20, 0x00, 0x00, 0x00,
  0xce, 0xff, 0xff, 0xff, 0x10, 0x00, 0x00, 0x00, 0x10, 0x00, 0x00, 0x00,
  0x03, 0x00, 0x00, 0x00, 0x18, 0x00, 0x00, 0x00, 0x00, 0xff, 0xff, 0xff,
  0x0a, 0x00, 0x00, 0x00, 0x64, 0x65, 0x6e, 0x73, 0x65, 0x2f, 0x62, 0x69,
  0x61, 0x73, 0x00, 0x00, 0x01, 0x00, 0x00, 0x00, 0x20, 0x00, 0x00, 0x00,
  0x00, 0x00, 0x0e, 0x00, 0x14, 0x00, 0x10, 0x00, 0x00, 0x00, 0x0c, 0x00,
  0x08, 0x00, 0x04, 0x00, 0x0e, 0x00, 0x00, 0x00, 0x10, 0x00, 0x00, 0x00,
  0x10, 0x00, 0x00, 0x00, 0x02, 0x00, 0x00, 0x00, 0x1c, 0x00, 0x00, 0x00,
  0x40, 0xff, 0xff, 0xff, 0x0c, 0x00, 0x00, 0x00, 0x64, 0x65, 0x6e, 0x73,
  0x65, 0x5f, 0x31, 0x2f, 0x62, 0x69, 0x61, 0x73, 0x00, 0x00, 0x00, 0x00,
  0x01, 0x00, 0x00, 0x00, 0x01, 0x00, 0x00, 0x00, 0x14, 0x00, 0x18, 0x00,
  0x14, 0x00, 0x00, 0x00, 0x10, 0x00, 0x0c, 0x00, 0x08, 0x00, 0x00, 0x00,
  0x00, 0x00, 0x04, 0x00, 0x14, 0x00, 0x00, 0x00, 0x14, 0x00, 0x00, 0x00,
  0x20, 0x00, 0x00, 0x00, 0x20, 0x00, 0x00, 0x00, 0x01, 0x00, 0x00, 0x00,
  0x3c, 0x00, 0x00, 0x00, 0x03, 0x00, 0x00, 0x00, 0xff, 0xff, 0xff, 0xff,
  0x09, 0x00, 0x00, 0x00, 0x03, 0x00, 0x00, 0x00, 0x9c, 0xff, 0xff, 0xff,
  0x1e, 0x00, 0x00, 0x00, 0x73, 0x65, 0x72, 0x76, 0x69, 0x6e, 0x67, 0x5f,
  0x64, 0x65, 0x66, 0x61, 0x75, 0x6c, 0x74, 0x5f, 0x63, 0x6f, 0x6e, 0x76,
  0x31, 0x64, 0x5f, 0x69, 0x6e, 0x70, 0x75, 0x74, 0x3a, 0x30, 0x00, 0x00,
  0x03, 0x00, 0x00, 0x00, 0x01, 0x00, 0x00, 0x00, 0x09, 0x00, 0x00, 0x00,
  0x03, 0x00, 0x00, 0x00, 0x0a, 0x00, 0x00, 0x00, 0x9c, 0x00, 0x00, 0x00,
  0x80, 0x00, 0x00, 0x00, 0x70, 0x00, 0x00, 0x00, 0x60, 0x00, 0x00, 0x00,
  0x50, 0x00, 0x00, 0x00, 0x40, 0x00, 0x00, 0x00, 0x30, 0x00, 0x00, 0x00,
  0x20, 0x00, 0x00, 0x00, 0x10, 0x00, 0x00, 0x00, 0x08, 0x00, 0x00, 0x00,
  0x04, 0x00, 0x04, 0x00, 0x04, 0x00, 0x00, 0x00, 0xa0, 0xff, 0xff, 0xff,
  0x09, 0x00, 0x00, 0x00, 0x00, 0x00, 0x00, 0x09, 0xac, 0xff, 0xff, 0xff,
  0x53, 0x00, 0x00, 0x00, 0x00, 0x00, 0x00, 0x53, 0xb8, 0xff, 0xff, 0xff,
  0x02, 0x00, 0x00, 0x00, 0x00, 0x00, 0x00, 0x02, 0xc4, 0xff, 0xff, 0xff,
  0x51, 0x00, 0x00, 0x00, 0x00, 0x00, 0x00, 0x51, 0xd0, 0xff, 0xff, 0xff,
  0x24, 0x00, 0x00, 0x00, 0x00, 0x00, 0x00, 0x24, 0xdc, 0xff, 0xff, 0xff,
  0x4d, 0x00, 0x00, 0x00, 0x00, 0x00, 0x00, 0x4d, 0xe8, 0xff, 0xff, 0xff,
  0x16, 0x00, 0x00, 0x00, 0x00, 0x00, 0x00, 0x16, 0xf4, 0xff, 0xff, 0xff,
  0x03, 0x00, 0x00, 0x00, 0x00, 0x00, 0x00, 0x03, 0x0c, 0x00, 0x0c, 0x00,
  0x0b, 0x00, 0x00, 0x00, 0x00, 0x00, 0x04, 0x00, 0x0c, 0x00, 0x00, 0x00,
  0x46, 0x00, 0x00, 0x00, 0x00, 0x00, 0x00, 0x46
};
unsigned int model_0_tflite_len = 13952;

